TRT-7202-EntropyCalibration2
input:0: 3ca94044
InceptionV4/InceptionV4/Conv2d_1a_3x3/BatchNorm/batchnorm/mul__872:0: 3ca94044
InceptionV4/InceptionV4/Conv2d_1a_3x3/BatchNorm/batchnorm/mul:0: 3e187c4b
InceptionV4/InceptionV4/Conv2d_1a_3x3/BatchNorm/batchnorm/mul__873:0: 3e187c4b
(Unnamed Layer* 3) [Constant]_output: 3d2df5f6
(Unnamed Layer* 4) [Shuffle]_output: 3d2df5f6
InceptionV4/InceptionV4/Conv2d_1a_3x3/BatchNorm/batchnorm/add_1:0: 3d8e1278
InceptionV4/InceptionV4/Conv2d_1a_3x3/Relu:0: 3e24c6c2
InceptionV4/InceptionV4/Conv2d_2a_3x3/BatchNorm/batchnorm/mul__874:0: 3e24c6c2
InceptionV4/InceptionV4/Conv2d_2a_3x3/BatchNorm/batchnorm/mul:0: 3e27f1a1
InceptionV4/InceptionV4/Conv2d_2a_3x3/BatchNorm/batchnorm/mul__875:0: 3e27f1a1
(Unnamed Layer* 10) [Constant]_output: 3d4db084
(Unnamed Layer* 11) [Shuffle]_output: 3d4db084
InceptionV4/InceptionV4/Conv2d_2a_3x3/BatchNorm/batchnorm/add_1:0: 3d96d7bf
InceptionV4/InceptionV4/Conv2d_2a_3x3/Relu:0: 3e27660f
InceptionV4/InceptionV4/Conv2d_2b_3x3/BatchNorm/batchnorm/mul__876:0: 3e27660f
InceptionV4/InceptionV4/Conv2d_2b_3x3/BatchNorm/batchnorm/mul:0: 3e435862
InceptionV4/InceptionV4/Conv2d_2b_3x3/BatchNorm/batchnorm/mul__877:0: 3e435862
(Unnamed Layer* 17) [Constant]_output: 3d6dbf3d
(Unnamed Layer* 18) [Shuffle]_output: 3d6dbf3d
InceptionV4/InceptionV4/Conv2d_2b_3x3/BatchNorm/batchnorm/add_1:0: 3df4a0dc
InceptionV4/InceptionV4/Conv2d_2b_3x3/Relu:0: 3dee4cf8
InceptionV4/InceptionV4/Mixed_3a/Branch_0/MaxPool_0a_3x3/MaxPool__880:0: 3dee4cf8
InceptionV4/InceptionV4/Mixed_3a/Branch_0/MaxPool_0a_3x3/MaxPool:0: 3dee4cf8
InceptionV4/InceptionV4/Mixed_3a/Branch_0/MaxPool_0a_3x3/MaxPool__881:0: 3e800e13
InceptionV4/InceptionV4/Mixed_3a/Branch_1/Conv2d_0a_3x3/BatchNorm/batchnorm/mul__878:0: 3dee4cf8
InceptionV4/InceptionV4/Mixed_3a/Branch_1/Conv2d_0a_3x3/BatchNorm/batchnorm/mul:0: 3e8b04c6
InceptionV4/InceptionV4/Mixed_3a/Branch_1/Conv2d_0a_3x3/BatchNorm/batchnorm/mul__879:0: 3e8b04c6
(Unnamed Layer* 27) [Constant]_output: 3d6e2209
(Unnamed Layer* 28) [Shuffle]_output: 3d6e2209
InceptionV4/InceptionV4/Mixed_3a/Branch_1/Conv2d_0a_3x3/BatchNorm/batchnorm/add_1:0: 3e4535bd
InceptionV4/InceptionV4/Mixed_3a/Branch_1/Conv2d_0a_3x3/Relu:0: 3e800e13
InceptionV4/InceptionV4/Mixed_3a/concat_v2:0: 3e800e13
InceptionV4/InceptionV4/Mixed_4a/Branch_1/Conv2d_0a_1x1/convolution__886:0: 3e800e13
InceptionV4/InceptionV4/Mixed_4a/Branch_1/Conv2d_0a_1x1/convolution:0: 3e63f34c
InceptionV4/InceptionV4/Mixed_4a/Branch_1/Conv2d_0a_1x1/convolution__887:0: 3e63f34c
(Unnamed Layer* 35) [Constant]_output: 3e7f0955
(Unnamed Layer* 36) [Shuffle]_output: 3e7f0955
InceptionV4/InceptionV4/Mixed_4a/Branch_1/Conv2d_0a_1x1/BatchNorm/batchnorm/mul:0: 3e228ee1
(Unnamed Layer* 38) [Constant]_output: 3d3815d4
(Unnamed Layer* 39) [Shuffle]_output: 3d3815d4
InceptionV4/InceptionV4/Mixed_4a/Branch_1/Conv2d_0a_1x1/BatchNorm/batchnorm/add_1:0: 3d96afe1
InceptionV4/InceptionV4/Mixed_4a/Branch_1/Conv2d_0a_1x1/Relu:0: 3e083052
InceptionV4/InceptionV4/Mixed_4a/Branch_1/Conv2d_0b_1x7/BatchNorm/batchnorm/mul__888:0: 3e083052
InceptionV4/InceptionV4/Mixed_4a/Branch_1/Conv2d_0b_1x7/BatchNorm/batchnorm/mul:0: 3dca643e
InceptionV4/InceptionV4/Mixed_4a/Branch_1/Conv2d_0b_1x7/BatchNorm/batchnorm/mul__889:0: 3dca643e
(Unnamed Layer* 45) [Constant]_output: 3d246a7c
(Unnamed Layer* 46) [Shuffle]_output: 3d246a7c
InceptionV4/InceptionV4/Mixed_4a/Branch_1/Conv2d_0b_1x7/BatchNorm/batchnorm/add_1:0: 3d8836ae
InceptionV4/InceptionV4/Mixed_4a/Branch_1/Conv2d_0b_1x7/Relu:0: 3dd71489
InceptionV4/InceptionV4/Mixed_4a/Branch_1/Conv2d_0c_7x1/BatchNorm/batchnorm/mul__890:0: 3dd71489
InceptionV4/InceptionV4/Mixed_4a/Branch_1/Conv2d_0c_7x1/BatchNorm/batchnorm/mul:0: 3dc8f02a
InceptionV4/InceptionV4/Mixed_4a/Branch_1/Conv2d_0c_7x1/BatchNorm/batchnorm/mul__891:0: 3dc8f02a
(Unnamed Layer* 52) [Constant]_output: 3d4ca879
(Unnamed Layer* 53) [Shuffle]_output: 3d4ca879
InceptionV4/InceptionV4/Mixed_4a/Branch_1/Conv2d_0c_7x1/BatchNorm/batchnorm/add_1:0: 3d854f35
InceptionV4/InceptionV4/Mixed_4a/Branch_1/Conv2d_0c_7x1/Relu:0: 3ddabbcb
InceptionV4/InceptionV4/Mixed_4a/Branch_1/Conv2d_1a_3x3/BatchNorm/batchnorm/mul__892:0: 3ddabbcb
InceptionV4/InceptionV4/Mixed_4a/Branch_1/Conv2d_1a_3x3/BatchNorm/batchnorm/mul:0: 3dbf913e
InceptionV4/InceptionV4/Mixed_4a/Branch_1/Conv2d_1a_3x3/BatchNorm/batchnorm/mul__893:0: 3dbf913e
(Unnamed Layer* 59) [Constant]_output: 3cc936e4
(Unnamed Layer* 60) [Shuffle]_output: 3cc936e4
InceptionV4/InceptionV4/Mixed_4a/Branch_1/Conv2d_1a_3x3/BatchNorm/batchnorm/add_1:0: 3d9ddfab
InceptionV4/InceptionV4/Mixed_4a/Branch_1/Conv2d_1a_3x3/Relu:0: 3dc4d28c
InceptionV4/InceptionV4/Mixed_4a/Branch_0/Conv2d_0a_1x1/BatchNorm/batchnorm/mul__882:0: 3e800e13
InceptionV4/InceptionV4/Mixed_4a/Branch_0/Conv2d_0a_1x1/BatchNorm/batchnorm/mul:0: 3de7e970
InceptionV4/InceptionV4/Mixed_4a/Branch_0/Conv2d_0a_1x1/BatchNorm/batchnorm/mul__883:0: 3de7e970
(Unnamed Layer* 66) [Constant]_output: 3cb070c5
(Unnamed Layer* 67) [Shuffle]_output: 3cb070c5
InceptionV4/InceptionV4/Mixed_4a/Branch_0/Conv2d_0a_1x1/BatchNorm/batchnorm/add_1:0: 3d8b9ba8
InceptionV4/InceptionV4/Mixed_4a/Branch_0/Conv2d_0a_1x1/Relu:0: 3dc7f988
InceptionV4/InceptionV4/Mixed_4a/Branch_0/Conv2d_1a_3x3/BatchNorm/batchnorm/mul__884:0: 3dc7f988
InceptionV4/InceptionV4/Mixed_4a/Branch_0/Conv2d_1a_3x3/BatchNorm/batchnorm/mul:0: 3e094d8d
InceptionV4/InceptionV4/Mixed_4a/Branch_0/Conv2d_1a_3x3/BatchNorm/batchnorm/mul__885:0: 3e094d8d
(Unnamed Layer* 73) [Constant]_output: 3d17d856
(Unnamed Layer* 74) [Shuffle]_output: 3d17d856
InceptionV4/InceptionV4/Mixed_4a/Branch_0/Conv2d_1a_3x3/BatchNorm/batchnorm/add_1:0: 3e024c86
InceptionV4/InceptionV4/Mixed_4a/Branch_0/Conv2d_1a_3x3/Relu:0: 3dc4d28c
InceptionV4/InceptionV4/Mixed_4a/concat_v2:0: 3dc4d28c
InceptionV4/InceptionV4/Mixed_5a/Branch_0/Conv2d_1a_3x3/BatchNorm/batchnorm/mul__896:0: 3dc4d28c
InceptionV4/InceptionV4/Mixed_5a/Branch_0/Conv2d_1a_3x3/BatchNorm/batchnorm/mul:0: 3dda8874
InceptionV4/InceptionV4/Mixed_5a/Branch_0/Conv2d_1a_3x3/BatchNorm/batchnorm/mul__897:0: 3dda8874
(Unnamed Layer* 81) [Constant]_output: 3d857096
(Unnamed Layer* 82) [Shuffle]_output: 3d857096
InceptionV4/InceptionV4/Mixed_5a/Branch_0/Conv2d_1a_3x3/BatchNorm/batchnorm/add_1:0: 3d8fe543
InceptionV4/InceptionV4/Mixed_5a/Branch_0/Conv2d_1a_3x3/Relu:0: 3dc4d28c
InceptionV4/InceptionV4/Mixed_5a/Branch_1/MaxPool_1a_3x3/MaxPool__894:0: 3dc4d28c
InceptionV4/InceptionV4/Mixed_5a/Branch_1/MaxPool_1a_3x3/MaxPool:0: 3dc4d28c
InceptionV4/InceptionV4/Mixed_5a/Branch_1/MaxPool_1a_3x3/MaxPool__895:0: 3dc4d28c
InceptionV4/InceptionV4/Mixed_5a/concat_v2:0: 3dc4d28c
InceptionV4/InceptionV4/Mixed_5b/Branch_2/Conv2d_0a_1x1/convolution__908:0: 3dc4d28c
InceptionV4/InceptionV4/Mixed_5b/Branch_2/Conv2d_0a_1x1/convolution:0: 3ddfd388
InceptionV4/InceptionV4/Mixed_5b/Branch_2/Conv2d_0a_1x1/convolution__909:0: 3ddfd388
(Unnamed Layer* 92) [Constant]_output: 3c50b9cd
(Unnamed Layer* 93) [Shuffle]_output: 3c50b9cd
InceptionV4/InceptionV4/Mixed_5b/Branch_2/Conv2d_0a_1x1/BatchNorm/batchnorm/mul:0: 3dc378c9
(Unnamed Layer* 95) [Constant]_output: 3d148d90
(Unnamed Layer* 96) [Shuffle]_output: 3d148d90
InceptionV4/InceptionV4/Mixed_5b/Branch_2/Conv2d_0a_1x1/BatchNorm/batchnorm/add_1:0: 3d9ff5e7
InceptionV4/InceptionV4/Mixed_5b/Branch_2/Conv2d_0a_1x1/Relu:0: 3da884bb
InceptionV4/InceptionV4/Mixed_5b/Branch_2/Conv2d_0b_3x3/BatchNorm/batchnorm/mul__910:0: 3da884bb
InceptionV4/InceptionV4/Mixed_5b/Branch_2/Conv2d_0b_3x3/BatchNorm/batchnorm/mul:0: 3d92bae7
InceptionV4/InceptionV4/Mixed_5b/Branch_2/Conv2d_0b_3x3/BatchNorm/batchnorm/mul__911:0: 3d92bae7
(Unnamed Layer* 102) [Constant]_output: 3c43a44a
(Unnamed Layer* 103) [Shuffle]_output: 3c43a44a
InceptionV4/InceptionV4/Mixed_5b/Branch_2/Conv2d_0b_3x3/BatchNorm/batchnorm/add_1:0: 3d8ae854
InceptionV4/InceptionV4/Mixed_5b/Branch_2/Conv2d_0b_3x3/Relu:0: 3d8b5878
InceptionV4/InceptionV4/Mixed_5b/Branch_2/Conv2d_0c_3x3/BatchNorm/batchnorm/mul__912:0: 3d8b5878
InceptionV4/InceptionV4/Mixed_5b/Branch_2/Conv2d_0c_3x3/BatchNorm/batchnorm/mul:0: 3d975ada
InceptionV4/InceptionV4/Mixed_5b/Branch_2/Conv2d_0c_3x3/BatchNorm/batchnorm/mul__913:0: 3d975ada
(Unnamed Layer* 109) [Constant]_output: 3c9e5af2
(Unnamed Layer* 110) [Shuffle]_output: 3c9e5af2
InceptionV4/InceptionV4/Mixed_5b/Branch_2/Conv2d_0c_3x3/BatchNorm/batchnorm/add_1:0: 3d8b9179
InceptionV4/InceptionV4/Mixed_5b/Branch_2/Conv2d_0c_3x3/Relu:0: 3d9ffd70
InceptionV4/InceptionV4/Mixed_5b/Branch_1/Conv2d_0a_1x1/convolution__904:0: 3dc4d28c
InceptionV4/InceptionV4/Mixed_5b/Branch_1/Conv2d_0a_1x1/convolution:0: 3dd8fff2
InceptionV4/InceptionV4/Mixed_5b/Branch_1/Conv2d_0a_1x1/convolution__905:0: 3dd8fff2
(Unnamed Layer* 116) [Constant]_output: 3c570d11
(Unnamed Layer* 117) [Shuffle]_output: 3c570d11
InceptionV4/InceptionV4/Mixed_5b/Branch_1/Conv2d_0a_1x1/BatchNorm/batchnorm/mul:0: 3db3947f
(Unnamed Layer* 119) [Constant]_output: 3c500a28
(Unnamed Layer* 120) [Shuffle]_output: 3c500a28
InceptionV4/InceptionV4/Mixed_5b/Branch_1/Conv2d_0a_1x1/BatchNorm/batchnorm/add_1:0: 3da71430
InceptionV4/InceptionV4/Mixed_5b/Branch_1/Conv2d_0a_1x1/Relu:0: 3dbf2444
InceptionV4/InceptionV4/Mixed_5b/Branch_1/Conv2d_0b_3x3/BatchNorm/batchnorm/mul__906:0: 3dbf2444
InceptionV4/InceptionV4/Mixed_5b/Branch_1/Conv2d_0b_3x3/BatchNorm/batchnorm/mul:0: 3dc9cee5
InceptionV4/InceptionV4/Mixed_5b/Branch_1/Conv2d_0b_3x3/BatchNorm/batchnorm/mul__907:0: 3dc9cee5
(Unnamed Layer* 126) [Constant]_output: 3d061873
(Unnamed Layer* 127) [Shuffle]_output: 3d061873
InceptionV4/InceptionV4/Mixed_5b/Branch_1/Conv2d_0b_3x3/BatchNorm/batchnorm/add_1:0: 3db2f0a9
InceptionV4/InceptionV4/Mixed_5b/Branch_1/Conv2d_0b_3x3/Relu:0: 3d9ffd70
InceptionV4/InceptionV4/Mixed_5b/Branch_0/Conv2d_0a_1x1/BatchNorm/batchnorm/mul__902:0: 3dc4d28c
InceptionV4/InceptionV4/Mixed_5b/Branch_0/Conv2d_0a_1x1/BatchNorm/batchnorm/mul:0: 3db23e1c
InceptionV4/InceptionV4/Mixed_5b/Branch_0/Conv2d_0a_1x1/BatchNorm/batchnorm/mul__903:0: 3db23e1c
(Unnamed Layer* 133) [Constant]_output: 3d097039
(Unnamed Layer* 134) [Shuffle]_output: 3d097039
InceptionV4/InceptionV4/Mixed_5b/Branch_0/Conv2d_0a_1x1/BatchNorm/batchnorm/add_1:0: 3d92bf08
InceptionV4/InceptionV4/Mixed_5b/Branch_0/Conv2d_0a_1x1/Relu:0: 3d9ffd70
InceptionV4/InceptionV4/Mixed_5b/Branch_3/AvgPool_0a_3x3/AvgPool__898:0: 3dc4d28c
InceptionV4/InceptionV4/Mixed_5b/Branch_3/AvgPool_0a_3x3/AvgPool:0: 3dc4d28c
InceptionV4/InceptionV4/Mixed_5b/Branch_3/Conv2d_0b_1x1/BatchNorm/batchnorm/mul:0: 3df6074d
InceptionV4/InceptionV4/Mixed_5b/Branch_3/Conv2d_0b_1x1/BatchNorm/batchnorm/mul__901:0: 3df6074d
(Unnamed Layer* 142) [Constant]_output: 3d8f0033
(Unnamed Layer* 143) [Shuffle]_output: 3d8f0033
InceptionV4/InceptionV4/Mixed_5b/Branch_3/Conv2d_0b_1x1/BatchNorm/batchnorm/add_1:0: 3dbbe118
InceptionV4/InceptionV4/Mixed_5b/Branch_3/Conv2d_0b_1x1/Relu:0: 3d9ffd70
InceptionV4/InceptionV4/Mixed_5b/concat_v2:0: 3d9ffd70
InceptionV4/InceptionV4/Mixed_5c/Branch_2/Conv2d_0a_1x1/convolution__924:0: 3d9ffd70
InceptionV4/InceptionV4/Mixed_5c/Branch_2/Conv2d_0a_1x1/convolution:0: 3dd48ebb
InceptionV4/InceptionV4/Mixed_5c/Branch_2/Conv2d_0a_1x1/convolution__925:0: 3dd48ebb
(Unnamed Layer* 150) [Constant]_output: 3c8a7cc2
(Unnamed Layer* 151) [Shuffle]_output: 3c8a7cc2
InceptionV4/InceptionV4/Mixed_5c/Branch_2/Conv2d_0a_1x1/BatchNorm/batchnorm/mul:0: 3da7984b
(Unnamed Layer* 153) [Constant]_output: 3ce26b03
(Unnamed Layer* 154) [Shuffle]_output: 3ce26b03
InceptionV4/InceptionV4/Mixed_5c/Branch_2/Conv2d_0a_1x1/BatchNorm/batchnorm/add_1:0: 3d92c842
InceptionV4/InceptionV4/Mixed_5c/Branch_2/Conv2d_0a_1x1/Relu:0: 3dad806f
InceptionV4/InceptionV4/Mixed_5c/Branch_2/Conv2d_0b_3x3/BatchNorm/batchnorm/mul__926:0: 3dad806f
InceptionV4/InceptionV4/Mixed_5c/Branch_2/Conv2d_0b_3x3/BatchNorm/batchnorm/mul:0: 3da1f55a
InceptionV4/InceptionV4/Mixed_5c/Branch_2/Conv2d_0b_3x3/BatchNorm/batchnorm/mul__927:0: 3da1f55a
(Unnamed Layer* 160) [Constant]_output: 3d06d66b
(Unnamed Layer* 161) [Shuffle]_output: 3d06d66b
InceptionV4/InceptionV4/Mixed_5c/Branch_2/Conv2d_0b_3x3/BatchNorm/batchnorm/add_1:0: 3d890d66
InceptionV4/InceptionV4/Mixed_5c/Branch_2/Conv2d_0b_3x3/Relu:0: 3d80f1c8
InceptionV4/InceptionV4/Mixed_5c/Branch_2/Conv2d_0c_3x3/BatchNorm/batchnorm/mul__928:0: 3d80f1c8
InceptionV4/InceptionV4/Mixed_5c/Branch_2/Conv2d_0c_3x3/BatchNorm/batchnorm/mul:0: 3da63d5a
InceptionV4/InceptionV4/Mixed_5c/Branch_2/Conv2d_0c_3x3/BatchNorm/batchnorm/mul__929:0: 3da63d5a
(Unnamed Layer* 167) [Constant]_output: 3c9dbaea
(Unnamed Layer* 168) [Shuffle]_output: 3c9dbaea
InceptionV4/InceptionV4/Mixed_5c/Branch_2/Conv2d_0c_3x3/BatchNorm/batchnorm/add_1:0: 3d9de090
InceptionV4/InceptionV4/Mixed_5c/Branch_2/Conv2d_0c_3x3/Relu:0: 3da904a7
InceptionV4/InceptionV4/Mixed_5c/Branch_1/Conv2d_0a_1x1/convolution__920:0: 3d9ffd70
InceptionV4/InceptionV4/Mixed_5c/Branch_1/Conv2d_0a_1x1/convolution:0: 3d879095
InceptionV4/InceptionV4/Mixed_5c/Branch_1/Conv2d_0a_1x1/convolution__921:0: 3d879095
(Unnamed Layer* 174) [Constant]_output: 3c9577dd
(Unnamed Layer* 175) [Shuffle]_output: 3c9577dd
InceptionV4/InceptionV4/Mixed_5c/Branch_1/Conv2d_0a_1x1/BatchNorm/batchnorm/mul:0: 3d89a942
(Unnamed Layer* 177) [Constant]_output: 3c7b26a1
(Unnamed Layer* 178) [Shuffle]_output: 3c7b26a1
InceptionV4/InceptionV4/Mixed_5c/Branch_1/Conv2d_0a_1x1/BatchNorm/batchnorm/add_1:0: 3d8b05ab
InceptionV4/InceptionV4/Mixed_5c/Branch_1/Conv2d_0a_1x1/Relu:0: 3d9149b6
InceptionV4/InceptionV4/Mixed_5c/Branch_1/Conv2d_0b_3x3/BatchNorm/batchnorm/mul__922:0: 3d9149b6
InceptionV4/InceptionV4/Mixed_5c/Branch_1/Conv2d_0b_3x3/BatchNorm/batchnorm/mul:0: 3da7dc0d
InceptionV4/InceptionV4/Mixed_5c/Branch_1/Conv2d_0b_3x3/BatchNorm/batchnorm/mul__923:0: 3da7dc0d
(Unnamed Layer* 184) [Constant]_output: 3c8f6dff
(Unnamed Layer* 185) [Shuffle]_output: 3c8f6dff
InceptionV4/InceptionV4/Mixed_5c/Branch_1/Conv2d_0b_3x3/BatchNorm/batchnorm/add_1:0: 3da1c125
InceptionV4/InceptionV4/Mixed_5c/Branch_1/Conv2d_0b_3x3/Relu:0: 3da904a7
InceptionV4/InceptionV4/Mixed_5c/Branch_0/Conv2d_0a_1x1/BatchNorm/batchnorm/mul__918:0: 3d9ffd70
InceptionV4/InceptionV4/Mixed_5c/Branch_0/Conv2d_0a_1x1/BatchNorm/batchnorm/mul:0: 3da354a3
InceptionV4/InceptionV4/Mixed_5c/Branch_0/Conv2d_0a_1x1/BatchNorm/batchnorm/mul__919:0: 3da354a3
(Unnamed Layer* 191) [Constant]_output: 3cdc036b
(Unnamed Layer* 192) [Shuffle]_output: 3cdc036b
InceptionV4/InceptionV4/Mixed_5c/Branch_0/Conv2d_0a_1x1/BatchNorm/batchnorm/add_1:0: 3d93b3c2
InceptionV4/InceptionV4/Mixed_5c/Branch_0/Conv2d_0a_1x1/Relu:0: 3da904a7
InceptionV4/InceptionV4/Mixed_5c/Branch_3/AvgPool_0a_3x3/AvgPool__914:0: 3d9ffd70
InceptionV4/InceptionV4/Mixed_5c/Branch_3/AvgPool_0a_3x3/AvgPool:0: 3d9ffd70
InceptionV4/InceptionV4/Mixed_5c/Branch_3/Conv2d_0b_1x1/BatchNorm/batchnorm/mul:0: 3dae6f48
InceptionV4/InceptionV4/Mixed_5c/Branch_3/Conv2d_0b_1x1/BatchNorm/batchnorm/mul__917:0: 3dae6f48
(Unnamed Layer* 200) [Constant]_output: 3cf1c83f
(Unnamed Layer* 201) [Shuffle]_output: 3cf1c83f
InceptionV4/InceptionV4/Mixed_5c/Branch_3/Conv2d_0b_1x1/BatchNorm/batchnorm/add_1:0: 3d873cc3
InceptionV4/InceptionV4/Mixed_5c/Branch_3/Conv2d_0b_1x1/Relu:0: 3da904a7
InceptionV4/InceptionV4/Mixed_5c/concat_v2:0: 3da904a7
InceptionV4/InceptionV4/Mixed_5d/Branch_2/Conv2d_0a_1x1/convolution__940:0: 3da904a7
InceptionV4/InceptionV4/Mixed_5d/Branch_2/Conv2d_0a_1x1/convolution:0: 3dc5ad14
InceptionV4/InceptionV4/Mixed_5d/Branch_2/Conv2d_0a_1x1/convolution__941:0: 3dc5ad14
(Unnamed Layer* 208) [Constant]_output: 3cb44381
(Unnamed Layer* 209) [Shuffle]_output: 3cb44381
InceptionV4/InceptionV4/Mixed_5d/Branch_2/Conv2d_0a_1x1/BatchNorm/batchnorm/mul:0: 3df01d22
(Unnamed Layer* 211) [Constant]_output: 3d358bf1
(Unnamed Layer* 212) [Shuffle]_output: 3d358bf1
InceptionV4/InceptionV4/Mixed_5d/Branch_2/Conv2d_0a_1x1/BatchNorm/batchnorm/add_1:0: 3da2d014
InceptionV4/InceptionV4/Mixed_5d/Branch_2/Conv2d_0a_1x1/Relu:0: 3da2d014
InceptionV4/InceptionV4/Mixed_5d/Branch_2/Conv2d_0b_3x3/BatchNorm/batchnorm/mul__942:0: 3da2d014
InceptionV4/InceptionV4/Mixed_5d/Branch_2/Conv2d_0b_3x3/BatchNorm/batchnorm/mul:0: 3d99006c
InceptionV4/InceptionV4/Mixed_5d/Branch_2/Conv2d_0b_3x3/BatchNorm/batchnorm/mul__943:0: 3d99006c
(Unnamed Layer* 218) [Constant]_output: 3d15c1c3
(Unnamed Layer* 219) [Shuffle]_output: 3d15c1c3
InceptionV4/InceptionV4/Mixed_5d/Branch_2/Conv2d_0b_3x3/BatchNorm/batchnorm/add_1:0: 3d6218e4
InceptionV4/InceptionV4/Mixed_5d/Branch_2/Conv2d_0b_3x3/Relu:0: 3da7f895
InceptionV4/InceptionV4/Mixed_5d/Branch_2/Conv2d_0c_3x3/BatchNorm/batchnorm/mul__944:0: 3da7f895
InceptionV4/InceptionV4/Mixed_5d/Branch_2/Conv2d_0c_3x3/BatchNorm/batchnorm/mul:0: 3da980f4
InceptionV4/InceptionV4/Mixed_5d/Branch_2/Conv2d_0c_3x3/BatchNorm/batchnorm/mul__945:0: 3da980f4
(Unnamed Layer* 225) [Constant]_output: 3cd12674
(Unnamed Layer* 226) [Shuffle]_output: 3cd12674
InceptionV4/InceptionV4/Mixed_5d/Branch_2/Conv2d_0c_3x3/BatchNorm/batchnorm/add_1:0: 3da0499d
InceptionV4/InceptionV4/Mixed_5d/Branch_2/Conv2d_0c_3x3/Relu:0: 3dae8924
InceptionV4/InceptionV4/Mixed_5d/Branch_1/Conv2d_0a_1x1/convolution__936:0: 3da904a7
InceptionV4/InceptionV4/Mixed_5d/Branch_1/Conv2d_0a_1x1/convolution:0: 3d38d38a
InceptionV4/InceptionV4/Mixed_5d/Branch_1/Conv2d_0a_1x1/convolution__937:0: 3d38d38a
(Unnamed Layer* 232) [Constant]_output: 3ca39033
(Unnamed Layer* 233) [Shuffle]_output: 3ca39033
InceptionV4/InceptionV4/Mixed_5d/Branch_1/Conv2d_0a_1x1/BatchNorm/batchnorm/mul:0: 3d8835c8
(Unnamed Layer* 235) [Constant]_output: 3c9b1ce0
(Unnamed Layer* 236) [Shuffle]_output: 3c9b1ce0
InceptionV4/InceptionV4/Mixed_5d/Branch_1/Conv2d_0a_1x1/BatchNorm/batchnorm/add_1:0: 3d7a39fa
InceptionV4/InceptionV4/Mixed_5d/Branch_1/Conv2d_0a_1x1/Relu:0: 3d65221e
InceptionV4/InceptionV4/Mixed_5d/Branch_1/Conv2d_0b_3x3/BatchNorm/batchnorm/mul__938:0: 3d65221e
InceptionV4/InceptionV4/Mixed_5d/Branch_1/Conv2d_0b_3x3/BatchNorm/batchnorm/mul:0: 3db9c095
InceptionV4/InceptionV4/Mixed_5d/Branch_1/Conv2d_0b_3x3/BatchNorm/batchnorm/mul__939:0: 3db9c095
(Unnamed Layer* 242) [Constant]_output: 3c797359
(Unnamed Layer* 243) [Shuffle]_output: 3c797359
InceptionV4/InceptionV4/Mixed_5d/Branch_1/Conv2d_0b_3x3/BatchNorm/batchnorm/add_1:0: 3db38a56
InceptionV4/InceptionV4/Mixed_5d/Branch_1/Conv2d_0b_3x3/Relu:0: 3dae8924
InceptionV4/InceptionV4/Mixed_5d/Branch_0/Conv2d_0a_1x1/BatchNorm/batchnorm/mul__934:0: 3da904a7
InceptionV4/InceptionV4/Mixed_5d/Branch_0/Conv2d_0a_1x1/BatchNorm/batchnorm/mul:0: 3d92052d
InceptionV4/InceptionV4/Mixed_5d/Branch_0/Conv2d_0a_1x1/BatchNorm/batchnorm/mul__935:0: 3d92052d
(Unnamed Layer* 249) [Constant]_output: 3cf8ee33
(Unnamed Layer* 250) [Shuffle]_output: 3cf8ee33
InceptionV4/InceptionV4/Mixed_5d/Branch_0/Conv2d_0a_1x1/BatchNorm/batchnorm/add_1:0: 3d9c42f1
InceptionV4/InceptionV4/Mixed_5d/Branch_0/Conv2d_0a_1x1/Relu:0: 3dae8924
InceptionV4/InceptionV4/Mixed_5d/Branch_3/AvgPool_0a_3x3/AvgPool__930:0: 3da904a7
InceptionV4/InceptionV4/Mixed_5d/Branch_3/AvgPool_0a_3x3/AvgPool:0: 3da904a7
InceptionV4/InceptionV4/Mixed_5d/Branch_3/Conv2d_0b_1x1/BatchNorm/batchnorm/mul:0: 3da8c43a
InceptionV4/InceptionV4/Mixed_5d/Branch_3/Conv2d_0b_1x1/BatchNorm/batchnorm/mul__933:0: 3da8c43a
(Unnamed Layer* 258) [Constant]_output: 3c954ab2
(Unnamed Layer* 259) [Shuffle]_output: 3c954ab2
InceptionV4/InceptionV4/Mixed_5d/Branch_3/Conv2d_0b_1x1/BatchNorm/batchnorm/add_1:0: 3d9f2395
InceptionV4/InceptionV4/Mixed_5d/Branch_3/Conv2d_0b_1x1/Relu:0: 3dae8924
InceptionV4/InceptionV4/Mixed_5d/concat_v2:0: 3dae8924
InceptionV4/InceptionV4/Mixed_5e/Branch_2/Conv2d_0a_1x1/convolution__956:0: 3dae8924
InceptionV4/InceptionV4/Mixed_5e/Branch_2/Conv2d_0a_1x1/convolution:0: 3d9d99f4
InceptionV4/InceptionV4/Mixed_5e/Branch_2/Conv2d_0a_1x1/convolution__957:0: 3d9d99f4
(Unnamed Layer* 266) [Constant]_output: 3cdc9cc9
(Unnamed Layer* 267) [Shuffle]_output: 3cdc9cc9
InceptionV4/InceptionV4/Mixed_5e/Branch_2/Conv2d_0a_1x1/BatchNorm/batchnorm/mul:0: 3da38201
(Unnamed Layer* 269) [Constant]_output: 3cc1ea17
(Unnamed Layer* 270) [Shuffle]_output: 3cc1ea17
InceptionV4/InceptionV4/Mixed_5e/Branch_2/Conv2d_0a_1x1/BatchNorm/batchnorm/add_1:0: 3d40d1fc
InceptionV4/InceptionV4/Mixed_5e/Branch_2/Conv2d_0a_1x1/Relu:0: 3d967829
InceptionV4/InceptionV4/Mixed_5e/Branch_2/Conv2d_0b_3x3/BatchNorm/batchnorm/mul__958:0: 3d967829
InceptionV4/InceptionV4/Mixed_5e/Branch_2/Conv2d_0b_3x3/BatchNorm/batchnorm/mul:0: 3d8cd13d
InceptionV4/InceptionV4/Mixed_5e/Branch_2/Conv2d_0b_3x3/BatchNorm/batchnorm/mul__959:0: 3d8cd13d
(Unnamed Layer* 276) [Constant]_output: 3c1e1a26
(Unnamed Layer* 277) [Shuffle]_output: 3c1e1a26
InceptionV4/InceptionV4/Mixed_5e/Branch_2/Conv2d_0b_3x3/BatchNorm/batchnorm/add_1:0: 3d82408b
InceptionV4/InceptionV4/Mixed_5e/Branch_2/Conv2d_0b_3x3/Relu:0: 3d651554
InceptionV4/InceptionV4/Mixed_5e/Branch_2/Conv2d_0c_3x3/BatchNorm/batchnorm/mul__960:0: 3d651554
InceptionV4/InceptionV4/Mixed_5e/Branch_2/Conv2d_0c_3x3/BatchNorm/batchnorm/mul:0: 3d838dfe
InceptionV4/InceptionV4/Mixed_5e/Branch_2/Conv2d_0c_3x3/BatchNorm/batchnorm/mul__961:0: 3d838dfe
(Unnamed Layer* 283) [Constant]_output: 3ccd7125
(Unnamed Layer* 284) [Shuffle]_output: 3ccd7125
InceptionV4/InceptionV4/Mixed_5e/Branch_2/Conv2d_0c_3x3/BatchNorm/batchnorm/add_1:0: 3d8cd9db
InceptionV4/InceptionV4/Mixed_5e/Branch_2/Conv2d_0c_3x3/Relu:0: 3d94bdca
InceptionV4/InceptionV4/Mixed_5e/Branch_1/Conv2d_0a_1x1/convolution__952:0: 3dae8924
InceptionV4/InceptionV4/Mixed_5e/Branch_1/Conv2d_0a_1x1/convolution:0: 3d7ccfc8
InceptionV4/InceptionV4/Mixed_5e/Branch_1/Conv2d_0a_1x1/convolution__953:0: 3d7ccfc8
(Unnamed Layer* 290) [Constant]_output: 3c828833
(Unnamed Layer* 291) [Shuffle]_output: 3c828833
InceptionV4/InceptionV4/Mixed_5e/Branch_1/Conv2d_0a_1x1/BatchNorm/batchnorm/mul:0: 3d866679
(Unnamed Layer* 293) [Constant]_output: 3ca1e51b
(Unnamed Layer* 294) [Shuffle]_output: 3ca1e51b
InceptionV4/InceptionV4/Mixed_5e/Branch_1/Conv2d_0a_1x1/BatchNorm/batchnorm/add_1:0: 3d8300fd
InceptionV4/InceptionV4/Mixed_5e/Branch_1/Conv2d_0a_1x1/Relu:0: 3d838471
InceptionV4/InceptionV4/Mixed_5e/Branch_1/Conv2d_0b_3x3/BatchNorm/batchnorm/mul__954:0: 3d838471
InceptionV4/InceptionV4/Mixed_5e/Branch_1/Conv2d_0b_3x3/BatchNorm/batchnorm/mul:0: 3d8370a2
InceptionV4/InceptionV4/Mixed_5e/Branch_1/Conv2d_0b_3x3/BatchNorm/batchnorm/mul__955:0: 3d8370a2
(Unnamed Layer* 300) [Constant]_output: 3c783798
(Unnamed Layer* 301) [Shuffle]_output: 3c783798
InceptionV4/InceptionV4/Mixed_5e/Branch_1/Conv2d_0b_3x3/BatchNorm/batchnorm/add_1:0: 3d89a470
InceptionV4/InceptionV4/Mixed_5e/Branch_1/Conv2d_0b_3x3/Relu:0: 3d94bdca
InceptionV4/InceptionV4/Mixed_5e/Branch_0/Conv2d_0a_1x1/BatchNorm/batchnorm/mul__950:0: 3dae8924
InceptionV4/InceptionV4/Mixed_5e/Branch_0/Conv2d_0a_1x1/BatchNorm/batchnorm/mul:0: 3d9ae382
InceptionV4/InceptionV4/Mixed_5e/Branch_0/Conv2d_0a_1x1/BatchNorm/batchnorm/mul__951:0: 3d9ae382
(Unnamed Layer* 307) [Constant]_output: 3ca1bace
(Unnamed Layer* 308) [Shuffle]_output: 3ca1bace
InceptionV4/InceptionV4/Mixed_5e/Branch_0/Conv2d_0a_1x1/BatchNorm/batchnorm/add_1:0: 3d910d6b
InceptionV4/InceptionV4/Mixed_5e/Branch_0/Conv2d_0a_1x1/Relu:0: 3d94bdca
InceptionV4/InceptionV4/Mixed_5e/Branch_3/AvgPool_0a_3x3/AvgPool__946:0: 3dae8924
InceptionV4/InceptionV4/Mixed_5e/Branch_3/AvgPool_0a_3x3/AvgPool:0: 3dae8924
InceptionV4/InceptionV4/Mixed_5e/Branch_3/Conv2d_0b_1x1/BatchNorm/batchnorm/mul:0: 3da4bcff
InceptionV4/InceptionV4/Mixed_5e/Branch_3/Conv2d_0b_1x1/BatchNorm/batchnorm/mul__949:0: 3da4bcff
(Unnamed Layer* 316) [Constant]_output: 3ccfdc95
(Unnamed Layer* 317) [Shuffle]_output: 3ccfdc95
InceptionV4/InceptionV4/Mixed_5e/Branch_3/Conv2d_0b_1x1/BatchNorm/batchnorm/add_1:0: 3d7ff449
InceptionV4/InceptionV4/Mixed_5e/Branch_3/Conv2d_0b_1x1/Relu:0: 3d94bdca
InceptionV4/InceptionV4/Mixed_5e/concat_v2:0: 3d94bdca
InceptionV4/InceptionV4/Mixed_6a/Branch_1/Conv2d_0a_1x1/convolution__966:0: 3d94bdca
InceptionV4/InceptionV4/Mixed_6a/Branch_1/Conv2d_0a_1x1/convolution:0: 3d3b43e7
InceptionV4/InceptionV4/Mixed_6a/Branch_1/Conv2d_0a_1x1/convolution__967:0: 3d3b43e7
(Unnamed Layer* 324) [Constant]_output: 3ce035d4
(Unnamed Layer* 325) [Shuffle]_output: 3ce035d4
InceptionV4/InceptionV4/Mixed_6a/Branch_1/Conv2d_0a_1x1/BatchNorm/batchnorm/mul:0: 3d9e1fd0
(Unnamed Layer* 327) [Constant]_output: 3cb71f0c
(Unnamed Layer* 328) [Shuffle]_output: 3cb71f0c
InceptionV4/InceptionV4/Mixed_6a/Branch_1/Conv2d_0a_1x1/BatchNorm/batchnorm/add_1:0: 3da8c0f0
InceptionV4/InceptionV4/Mixed_6a/Branch_1/Conv2d_0a_1x1/Relu:0: 3d911bd5
InceptionV4/InceptionV4/Mixed_6a/Branch_1/Conv2d_0b_3x3/BatchNorm/batchnorm/mul__968:0: 3d911bd5
InceptionV4/InceptionV4/Mixed_6a/Branch_1/Conv2d_0b_3x3/BatchNorm/batchnorm/mul:0: 3dc1c6c7
InceptionV4/InceptionV4/Mixed_6a/Branch_1/Conv2d_0b_3x3/BatchNorm/batchnorm/mul__969:0: 3dc1c6c7
(Unnamed Layer* 334) [Constant]_output: 3cb76f11
(Unnamed Layer* 335) [Shuffle]_output: 3cb76f11
InceptionV4/InceptionV4/Mixed_6a/Branch_1/Conv2d_0b_3x3/BatchNorm/batchnorm/add_1:0: 3dc3c21b
InceptionV4/InceptionV4/Mixed_6a/Branch_1/Conv2d_0b_3x3/Relu:0: 3d8e90e8
InceptionV4/InceptionV4/Mixed_6a/Branch_1/Conv2d_1a_3x3/BatchNorm/batchnorm/mul__970:0: 3d8e90e8
InceptionV4/InceptionV4/Mixed_6a/Branch_1/Conv2d_1a_3x3/BatchNorm/batchnorm/mul:0: 3dffa7ef
InceptionV4/InceptionV4/Mixed_6a/Branch_1/Conv2d_1a_3x3/BatchNorm/batchnorm/mul__971:0: 3dffa7ef
(Unnamed Layer* 341) [Constant]_output: 3c961f85
(Unnamed Layer* 342) [Shuffle]_output: 3c961f85
InceptionV4/InceptionV4/Mixed_6a/Branch_1/Conv2d_1a_3x3/BatchNorm/batchnorm/add_1:0: 3de78f26
InceptionV4/InceptionV4/Mixed_6a/Branch_1/Conv2d_1a_3x3/Relu:0: 3d9e73f7
InceptionV4/InceptionV4/Mixed_6a/Branch_0/Conv2d_1a_3x3/BatchNorm/batchnorm/mul__964:0: 3d94bdca
InceptionV4/InceptionV4/Mixed_6a/Branch_0/Conv2d_1a_3x3/BatchNorm/batchnorm/mul:0: 3da59062
InceptionV4/InceptionV4/Mixed_6a/Branch_0/Conv2d_1a_3x3/BatchNorm/batchnorm/mul__965:0: 3da59062
(Unnamed Layer* 348) [Constant]_output: 3cac9d5e
(Unnamed Layer* 349) [Shuffle]_output: 3cac9d5e
InceptionV4/InceptionV4/Mixed_6a/Branch_0/Conv2d_1a_3x3/BatchNorm/batchnorm/add_1:0: 3d83e80b
InceptionV4/InceptionV4/Mixed_6a/Branch_0/Conv2d_1a_3x3/Relu:0: 3d9e73f7
InceptionV4/InceptionV4/Mixed_6a/Branch_2/MaxPool_1a_3x3/MaxPool__962:0: 3d94bdca
InceptionV4/InceptionV4/Mixed_6a/Branch_2/MaxPool_1a_3x3/MaxPool:0: 3d94bdca
InceptionV4/InceptionV4/Mixed_6a/Branch_2/MaxPool_1a_3x3/MaxPool__963:0: 3d9e73f7
InceptionV4/InceptionV4/Mixed_6a/concat_v2:0: 3d9e73f7
InceptionV4/InceptionV4/Mixed_6b/Branch_2/Conv2d_0a_1x1/convolution__984:0: 3d9e73f7
InceptionV4/InceptionV4/Mixed_6b/Branch_2/Conv2d_0a_1x1/convolution:0: 3da3c79c
InceptionV4/InceptionV4/Mixed_6b/Branch_2/Conv2d_0a_1x1/convolution__985:0: 3da3c79c
(Unnamed Layer* 359) [Constant]_output: 3c791da2
(Unnamed Layer* 360) [Shuffle]_output: 3c791da2
InceptionV4/InceptionV4/Mixed_6b/Branch_2/Conv2d_0a_1x1/BatchNorm/batchnorm/mul:0: 3d8be1a4
(Unnamed Layer* 362) [Constant]_output: 3c8f8981
(Unnamed Layer* 363) [Shuffle]_output: 3c8f8981
InceptionV4/InceptionV4/Mixed_6b/Branch_2/Conv2d_0a_1x1/BatchNorm/batchnorm/add_1:0: 3d5621aa
InceptionV4/InceptionV4/Mixed_6b/Branch_2/Conv2d_0a_1x1/Relu:0: 3d7ad9e6
InceptionV4/InceptionV4/Mixed_6b/Branch_2/Conv2d_0b_7x1/BatchNorm/batchnorm/mul__986:0: 3d7ad9e6
InceptionV4/InceptionV4/Mixed_6b/Branch_2/Conv2d_0b_7x1/BatchNorm/batchnorm/mul:0: 3d683460
InceptionV4/InceptionV4/Mixed_6b/Branch_2/Conv2d_0b_7x1/BatchNorm/batchnorm/mul__987:0: 3d683460
(Unnamed Layer* 369) [Constant]_output: 3ca7398f
(Unnamed Layer* 370) [Shuffle]_output: 3ca7398f
InceptionV4/InceptionV4/Mixed_6b/Branch_2/Conv2d_0b_7x1/BatchNorm/batchnorm/add_1:0: 3d679851
InceptionV4/InceptionV4/Mixed_6b/Branch_2/Conv2d_0b_7x1/Relu:0: 3d5b9b65
InceptionV4/InceptionV4/Mixed_6b/Branch_2/Conv2d_0c_1x7/BatchNorm/batchnorm/mul__988:0: 3d5b9b65
InceptionV4/InceptionV4/Mixed_6b/Branch_2/Conv2d_0c_1x7/BatchNorm/batchnorm/mul:0: 3d8f53bc
InceptionV4/InceptionV4/Mixed_6b/Branch_2/Conv2d_0c_1x7/BatchNorm/batchnorm/mul__989:0: 3d8f53bc
(Unnamed Layer* 376) [Constant]_output: 3c92d646
(Unnamed Layer* 377) [Shuffle]_output: 3c92d646
InceptionV4/InceptionV4/Mixed_6b/Branch_2/Conv2d_0c_1x7/BatchNorm/batchnorm/add_1:0: 3d7c3ddc
InceptionV4/InceptionV4/Mixed_6b/Branch_2/Conv2d_0c_1x7/Relu:0: 3d71c72f
InceptionV4/InceptionV4/Mixed_6b/Branch_2/Conv2d_0d_7x1/BatchNorm/batchnorm/mul__990:0: 3d71c72f
InceptionV4/InceptionV4/Mixed_6b/Branch_2/Conv2d_0d_7x1/BatchNorm/batchnorm/mul:0: 3d97b08d
InceptionV4/InceptionV4/Mixed_6b/Branch_2/Conv2d_0d_7x1/BatchNorm/batchnorm/mul__991:0: 3d97b08d
(Unnamed Layer* 383) [Constant]_output: 3c9eab5a
(Unnamed Layer* 384) [Shuffle]_output: 3c9eab5a
InceptionV4/InceptionV4/Mixed_6b/Branch_2/Conv2d_0d_7x1/BatchNorm/batchnorm/add_1:0: 3d80e526
InceptionV4/InceptionV4/Mixed_6b/Branch_2/Conv2d_0d_7x1/Relu:0: 3d794ea4
InceptionV4/InceptionV4/Mixed_6b/Branch_2/Conv2d_0e_1x7/BatchNorm/batchnorm/mul__992:0: 3d794ea4
InceptionV4/InceptionV4/Mixed_6b/Branch_2/Conv2d_0e_1x7/BatchNorm/batchnorm/mul:0: 3ddf8f1a
InceptionV4/InceptionV4/Mixed_6b/Branch_2/Conv2d_0e_1x7/BatchNorm/batchnorm/mul__993:0: 3ddf8f1a
(Unnamed Layer* 390) [Constant]_output: 3c5babde
(Unnamed Layer* 391) [Shuffle]_output: 3c5babde
InceptionV4/InceptionV4/Mixed_6b/Branch_2/Conv2d_0e_1x7/BatchNorm/batchnorm/add_1:0: 3dc5f48c
InceptionV4/InceptionV4/Mixed_6b/Branch_2/Conv2d_0e_1x7/Relu:0: 3d8b4747
InceptionV4/InceptionV4/Mixed_6b/Branch_1/Conv2d_0a_1x1/convolution__978:0: 3d9e73f7
InceptionV4/InceptionV4/Mixed_6b/Branch_1/Conv2d_0a_1x1/convolution:0: 3d86fc46
InceptionV4/InceptionV4/Mixed_6b/Branch_1/Conv2d_0a_1x1/convolution__979:0: 3d86fc46
(Unnamed Layer* 397) [Constant]_output: 3c6e6251
(Unnamed Layer* 398) [Shuffle]_output: 3c6e6251
InceptionV4/InceptionV4/Mixed_6b/Branch_1/Conv2d_0a_1x1/BatchNorm/batchnorm/mul:0: 3d8b3fd0
(Unnamed Layer* 400) [Constant]_output: 3c9d5025
(Unnamed Layer* 401) [Shuffle]_output: 3c9d5025
InceptionV4/InceptionV4/Mixed_6b/Branch_1/Conv2d_0a_1x1/BatchNorm/batchnorm/add_1:0: 3d777603
InceptionV4/InceptionV4/Mixed_6b/Branch_1/Conv2d_0a_1x1/Relu:0: 3d863cd5
InceptionV4/InceptionV4/Mixed_6b/Branch_1/Conv2d_0b_1x7/BatchNorm/batchnorm/mul__980:0: 3d863cd5
InceptionV4/InceptionV4/Mixed_6b/Branch_1/Conv2d_0b_1x7/BatchNorm/batchnorm/mul:0: 3d801ce4
InceptionV4/InceptionV4/Mixed_6b/Branch_1/Conv2d_0b_1x7/BatchNorm/batchnorm/mul__981:0: 3d801ce4
(Unnamed Layer* 407) [Constant]_output: 3c278a91
(Unnamed Layer* 408) [Shuffle]_output: 3c278a91
InceptionV4/InceptionV4/Mixed_6b/Branch_1/Conv2d_0b_1x7/BatchNorm/batchnorm/add_1:0: 3d80ac6b
InceptionV4/InceptionV4/Mixed_6b/Branch_1/Conv2d_0b_1x7/Relu:0: 3d78173e
InceptionV4/InceptionV4/Mixed_6b/Branch_1/Conv2d_0c_7x1/BatchNorm/batchnorm/mul__982:0: 3d78173e
InceptionV4/InceptionV4/Mixed_6b/Branch_1/Conv2d_0c_7x1/BatchNorm/batchnorm/mul:0: 3d7157cb
InceptionV4/InceptionV4/Mixed_6b/Branch_1/Conv2d_0c_7x1/BatchNorm/batchnorm/mul__983:0: 3d7157cb
(Unnamed Layer* 414) [Constant]_output: 3c8653f8
(Unnamed Layer* 415) [Shuffle]_output: 3c8653f8
InceptionV4/InceptionV4/Mixed_6b/Branch_1/Conv2d_0c_7x1/BatchNorm/batchnorm/add_1:0: 3d837ce1
InceptionV4/InceptionV4/Mixed_6b/Branch_1/Conv2d_0c_7x1/Relu:0: 3d8b4747
InceptionV4/InceptionV4/Mixed_6b/Branch_0/Conv2d_0a_1x1/BatchNorm/batchnorm/mul__976:0: 3d9e73f7
InceptionV4/InceptionV4/Mixed_6b/Branch_0/Conv2d_0a_1x1/BatchNorm/batchnorm/mul:0: 3d7f7773
InceptionV4/InceptionV4/Mixed_6b/Branch_0/Conv2d_0a_1x1/BatchNorm/batchnorm/mul__977:0: 3d7f7773
(Unnamed Layer* 421) [Constant]_output: 3ca43642
(Unnamed Layer* 422) [Shuffle]_output: 3ca43642
InceptionV4/InceptionV4/Mixed_6b/Branch_0/Conv2d_0a_1x1/BatchNorm/batchnorm/add_1:0: 3d85d8ec
InceptionV4/InceptionV4/Mixed_6b/Branch_0/Conv2d_0a_1x1/Relu:0: 3d8b4747
InceptionV4/InceptionV4/Mixed_6b/Branch_3/AvgPool_0a_3x3/AvgPool__972:0: 3d9e73f7
InceptionV4/InceptionV4/Mixed_6b/Branch_3/AvgPool_0a_3x3/AvgPool:0: 3d9e73f7
InceptionV4/InceptionV4/Mixed_6b/Branch_3/Conv2d_0b_1x1/BatchNorm/batchnorm/mul:0: 3d79cde2
InceptionV4/InceptionV4/Mixed_6b/Branch_3/Conv2d_0b_1x1/BatchNorm/batchnorm/mul__975:0: 3d79cde2
(Unnamed Layer* 430) [Constant]_output: 3c8af438
(Unnamed Layer* 431) [Shuffle]_output: 3c8af438
InceptionV4/InceptionV4/Mixed_6b/Branch_3/Conv2d_0b_1x1/BatchNorm/batchnorm/add_1:0: 3d6500e3
InceptionV4/InceptionV4/Mixed_6b/Branch_3/Conv2d_0b_1x1/Relu:0: 3d8b4747
InceptionV4/InceptionV4/Mixed_6b/concat_v2:0: 3d8b4747
InceptionV4/InceptionV4/Mixed_6c/Branch_2/Conv2d_0a_1x1/convolution__1006:0: 3d8b4747
InceptionV4/InceptionV4/Mixed_6c/Branch_2/Conv2d_0a_1x1/convolution:0: 3d9af6ca
InceptionV4/InceptionV4/Mixed_6c/Branch_2/Conv2d_0a_1x1/convolution__1007:0: 3d9af6ca
(Unnamed Layer* 438) [Constant]_output: 3cb36979
(Unnamed Layer* 439) [Shuffle]_output: 3cb36979
InceptionV4/InceptionV4/Mixed_6c/Branch_2/Conv2d_0a_1x1/BatchNorm/batchnorm/mul:0: 3d9d1211
(Unnamed Layer* 441) [Constant]_output: 3cad5394
(Unnamed Layer* 442) [Shuffle]_output: 3cad5394
InceptionV4/InceptionV4/Mixed_6c/Branch_2/Conv2d_0a_1x1/BatchNorm/batchnorm/add_1:0: 3d8ecf48
InceptionV4/InceptionV4/Mixed_6c/Branch_2/Conv2d_0a_1x1/Relu:0: 3d8ecf48
InceptionV4/InceptionV4/Mixed_6c/Branch_2/Conv2d_0b_7x1/BatchNorm/batchnorm/mul__1008:0: 3d8ecf48
InceptionV4/InceptionV4/Mixed_6c/Branch_2/Conv2d_0b_7x1/BatchNorm/batchnorm/mul:0: 3da1ca0b
InceptionV4/InceptionV4/Mixed_6c/Branch_2/Conv2d_0b_7x1/BatchNorm/batchnorm/mul__1009:0: 3da1ca0b
(Unnamed Layer* 448) [Constant]_output: 3c532e77
(Unnamed Layer* 449) [Shuffle]_output: 3c532e77
InceptionV4/InceptionV4/Mixed_6c/Branch_2/Conv2d_0b_7x1/BatchNorm/batchnorm/add_1:0: 3d909151
InceptionV4/InceptionV4/Mixed_6c/Branch_2/Conv2d_0b_7x1/Relu:0: 3d887733
InceptionV4/InceptionV4/Mixed_6c/Branch_2/Conv2d_0c_1x7/BatchNorm/batchnorm/mul__1010:0: 3d887733
InceptionV4/InceptionV4/Mixed_6c/Branch_2/Conv2d_0c_1x7/BatchNorm/batchnorm/mul:0: 3dadc11b
InceptionV4/InceptionV4/Mixed_6c/Branch_2/Conv2d_0c_1x7/BatchNorm/batchnorm/mul__1011:0: 3dadc11b
(Unnamed Layer* 455) [Constant]_output: 3c7cf2c6
(Unnamed Layer* 456) [Shuffle]_output: 3c7cf2c6
InceptionV4/InceptionV4/Mixed_6c/Branch_2/Conv2d_0c_1x7/BatchNorm/batchnorm/add_1:0: 3da144ac
InceptionV4/InceptionV4/Mixed_6c/Branch_2/Conv2d_0c_1x7/Relu:0: 3da270ed
InceptionV4/InceptionV4/Mixed_6c/Branch_2/Conv2d_0d_7x1/BatchNorm/batchnorm/mul__1012:0: 3da270ed
InceptionV4/InceptionV4/Mixed_6c/Branch_2/Conv2d_0d_7x1/BatchNorm/batchnorm/mul:0: 3da355c3
InceptionV4/InceptionV4/Mixed_6c/Branch_2/Conv2d_0d_7x1/BatchNorm/batchnorm/mul__1013:0: 3da355c3
(Unnamed Layer* 462) [Constant]_output: 3c95a139
(Unnamed Layer* 463) [Shuffle]_output: 3c95a139
InceptionV4/InceptionV4/Mixed_6c/Branch_2/Conv2d_0d_7x1/BatchNorm/batchnorm/add_1:0: 3da97528
InceptionV4/InceptionV4/Mixed_6c/Branch_2/Conv2d_0d_7x1/Relu:0: 3d9a94d1
InceptionV4/InceptionV4/Mixed_6c/Branch_2/Conv2d_0e_1x7/BatchNorm/batchnorm/mul__1014:0: 3d9a94d1
InceptionV4/InceptionV4/Mixed_6c/Branch_2/Conv2d_0e_1x7/BatchNorm/batchnorm/mul:0: 3d9aa175
InceptionV4/InceptionV4/Mixed_6c/Branch_2/Conv2d_0e_1x7/BatchNorm/batchnorm/mul__1015:0: 3d9aa175
(Unnamed Layer* 469) [Constant]_output: 3c916863
(Unnamed Layer* 470) [Shuffle]_output: 3c916863
InceptionV4/InceptionV4/Mixed_6c/Branch_2/Conv2d_0e_1x7/BatchNorm/batchnorm/add_1:0: 3d9086ee
InceptionV4/InceptionV4/Mixed_6c/Branch_2/Conv2d_0e_1x7/Relu:0: 3d7257da
InceptionV4/InceptionV4/Mixed_6c/Branch_1/Conv2d_0a_1x1/convolution__1000:0: 3d8b4747
InceptionV4/InceptionV4/Mixed_6c/Branch_1/Conv2d_0a_1x1/convolution:0: 3d1c1de4
InceptionV4/InceptionV4/Mixed_6c/Branch_1/Conv2d_0a_1x1/convolution__1001:0: 3d1c1de4
(Unnamed Layer* 476) [Constant]_output: 3cc8cb20
(Unnamed Layer* 477) [Shuffle]_output: 3cc8cb20
InceptionV4/InceptionV4/Mixed_6c/Branch_1/Conv2d_0a_1x1/BatchNorm/batchnorm/mul:0: 3da96db1
(Unnamed Layer* 479) [Constant]_output: 3cd83550
(Unnamed Layer* 480) [Shuffle]_output: 3cd83550
InceptionV4/InceptionV4/Mixed_6c/Branch_1/Conv2d_0a_1x1/BatchNorm/batchnorm/add_1:0: 3d8a4a9d
InceptionV4/InceptionV4/Mixed_6c/Branch_1/Conv2d_0a_1x1/Relu:0: 3d984119
InceptionV4/InceptionV4/Mixed_6c/Branch_1/Conv2d_0b_1x7/BatchNorm/batchnorm/mul__1002:0: 3d984119
InceptionV4/InceptionV4/Mixed_6c/Branch_1/Conv2d_0b_1x7/BatchNorm/batchnorm/mul:0: 3dd32980
InceptionV4/InceptionV4/Mixed_6c/Branch_1/Conv2d_0b_1x7/BatchNorm/batchnorm/mul__1003:0: 3dd32980
(Unnamed Layer* 486) [Constant]_output: 3c08c641
(Unnamed Layer* 487) [Shuffle]_output: 3c08c641
InceptionV4/InceptionV4/Mixed_6c/Branch_1/Conv2d_0b_1x7/BatchNorm/batchnorm/add_1:0: 3db1c6ea
InceptionV4/InceptionV4/Mixed_6c/Branch_1/Conv2d_0b_1x7/Relu:0: 3dc40ae9
InceptionV4/InceptionV4/Mixed_6c/Branch_1/Conv2d_0c_7x1/BatchNorm/batchnorm/mul__1004:0: 3dc40ae9
InceptionV4/InceptionV4/Mixed_6c/Branch_1/Conv2d_0c_7x1/BatchNorm/batchnorm/mul:0: 3dff5f41
InceptionV4/InceptionV4/Mixed_6c/Branch_1/Conv2d_0c_7x1/BatchNorm/batchnorm/mul__1005:0: 3dff5f41
(Unnamed Layer* 493) [Constant]_output: 3c9f4293
(Unnamed Layer* 494) [Shuffle]_output: 3c9f4293
InceptionV4/InceptionV4/Mixed_6c/Branch_1/Conv2d_0c_7x1/BatchNorm/batchnorm/add_1:0: 3df295ee
InceptionV4/InceptionV4/Mixed_6c/Branch_1/Conv2d_0c_7x1/Relu:0: 3d7257da
InceptionV4/InceptionV4/Mixed_6c/Branch_0/Conv2d_0a_1x1/BatchNorm/batchnorm/mul__998:0: 3d8b4747
InceptionV4/InceptionV4/Mixed_6c/Branch_0/Conv2d_0a_1x1/BatchNorm/batchnorm/mul:0: 3d8fa9ec
InceptionV4/InceptionV4/Mixed_6c/Branch_0/Conv2d_0a_1x1/BatchNorm/batchnorm/mul__999:0: 3d8fa9ec
(Unnamed Layer* 500) [Constant]_output: 3c4797f8
(Unnamed Layer* 501) [Shuffle]_output: 3c4797f8
InceptionV4/InceptionV4/Mixed_6c/Branch_0/Conv2d_0a_1x1/BatchNorm/batchnorm/add_1:0: 3d877126
InceptionV4/InceptionV4/Mixed_6c/Branch_0/Conv2d_0a_1x1/Relu:0: 3d7257da
InceptionV4/InceptionV4/Mixed_6c/Branch_3/AvgPool_0a_3x3/AvgPool__994:0: 3d8b4747
InceptionV4/InceptionV4/Mixed_6c/Branch_3/AvgPool_0a_3x3/AvgPool:0: 3d8b4747
InceptionV4/InceptionV4/Mixed_6c/Branch_3/Conv2d_0b_1x1/BatchNorm/batchnorm/mul:0: 3d5a61ea
InceptionV4/InceptionV4/Mixed_6c/Branch_3/Conv2d_0b_1x1/BatchNorm/batchnorm/mul__997:0: 3d5a61ea
(Unnamed Layer* 509) [Constant]_output: 3cc69b80
(Unnamed Layer* 510) [Shuffle]_output: 3cc69b80
InceptionV4/InceptionV4/Mixed_6c/Branch_3/Conv2d_0b_1x1/BatchNorm/batchnorm/add_1:0: 3d52eeb8
InceptionV4/InceptionV4/Mixed_6c/Branch_3/Conv2d_0b_1x1/Relu:0: 3d7257da
InceptionV4/InceptionV4/Mixed_6c/concat_v2:0: 3d7257da
InceptionV4/InceptionV4/Mixed_6d/Branch_2/Conv2d_0a_1x1/convolution__1028:0: 3d7257da
InceptionV4/InceptionV4/Mixed_6d/Branch_2/Conv2d_0a_1x1/convolution:0: 3d5fa8e4
InceptionV4/InceptionV4/Mixed_6d/Branch_2/Conv2d_0a_1x1/convolution__1029:0: 3d5fa8e4
(Unnamed Layer* 517) [Constant]_output: 3cb67371
(Unnamed Layer* 518) [Shuffle]_output: 3cb67371
InceptionV4/InceptionV4/Mixed_6d/Branch_2/Conv2d_0a_1x1/BatchNorm/batchnorm/mul:0: 3dbec70b
(Unnamed Layer* 520) [Constant]_output: 3c7c8ebf
(Unnamed Layer* 521) [Shuffle]_output: 3c7c8ebf
InceptionV4/InceptionV4/Mixed_6d/Branch_2/Conv2d_0a_1x1/BatchNorm/batchnorm/add_1:0: 3dbfc748
InceptionV4/InceptionV4/Mixed_6d/Branch_2/Conv2d_0a_1x1/Relu:0: 3d9e6f6e
InceptionV4/InceptionV4/Mixed_6d/Branch_2/Conv2d_0b_7x1/BatchNorm/batchnorm/mul__1030:0: 3d9e6f6e
InceptionV4/InceptionV4/Mixed_6d/Branch_2/Conv2d_0b_7x1/BatchNorm/batchnorm/mul:0: 3dced758
InceptionV4/InceptionV4/Mixed_6d/Branch_2/Conv2d_0b_7x1/BatchNorm/batchnorm/mul__1031:0: 3dced758
(Unnamed Layer* 527) [Constant]_output: 3c4b5203
(Unnamed Layer* 528) [Shuffle]_output: 3c4b5203
InceptionV4/InceptionV4/Mixed_6d/Branch_2/Conv2d_0b_7x1/BatchNorm/batchnorm/add_1:0: 3db7adba
InceptionV4/InceptionV4/Mixed_6d/Branch_2/Conv2d_0b_7x1/Relu:0: 3d98c68d
InceptionV4/InceptionV4/Mixed_6d/Branch_2/Conv2d_0c_1x7/BatchNorm/batchnorm/mul__1032:0: 3d98c68d
InceptionV4/InceptionV4/Mixed_6d/Branch_2/Conv2d_0c_1x7/BatchNorm/batchnorm/mul:0: 3da022e9
InceptionV4/InceptionV4/Mixed_6d/Branch_2/Conv2d_0c_1x7/BatchNorm/batchnorm/mul__1033:0: 3da022e9
(Unnamed Layer* 534) [Constant]_output: 3c578a24
(Unnamed Layer* 535) [Shuffle]_output: 3c578a24
InceptionV4/InceptionV4/Mixed_6d/Branch_2/Conv2d_0c_1x7/BatchNorm/batchnorm/add_1:0: 3d8b7ff9
InceptionV4/InceptionV4/Mixed_6d/Branch_2/Conv2d_0c_1x7/Relu:0: 3d7003c7
InceptionV4/InceptionV4/Mixed_6d/Branch_2/Conv2d_0d_7x1/BatchNorm/batchnorm/mul__1034:0: 3d7003c7
InceptionV4/InceptionV4/Mixed_6d/Branch_2/Conv2d_0d_7x1/BatchNorm/batchnorm/mul:0: 3d5c1549
InceptionV4/InceptionV4/Mixed_6d/Branch_2/Conv2d_0d_7x1/BatchNorm/batchnorm/mul__1035:0: 3d5c1549
(Unnamed Layer* 541) [Constant]_output: 3c81a7ec
(Unnamed Layer* 542) [Shuffle]_output: 3c81a7ec
InceptionV4/InceptionV4/Mixed_6d/Branch_2/Conv2d_0d_7x1/BatchNorm/batchnorm/add_1:0: 3d4e49e0
InceptionV4/InceptionV4/Mixed_6d/Branch_2/Conv2d_0d_7x1/Relu:0: 3d8b1fbb
InceptionV4/InceptionV4/Mixed_6d/Branch_2/Conv2d_0e_1x7/BatchNorm/batchnorm/mul__1036:0: 3d8b1fbb
InceptionV4/InceptionV4/Mixed_6d/Branch_2/Conv2d_0e_1x7/BatchNorm/batchnorm/mul:0: 3d3b98ec
InceptionV4/InceptionV4/Mixed_6d/Branch_2/Conv2d_0e_1x7/BatchNorm/batchnorm/mul__1037:0: 3d3b98ec
(Unnamed Layer* 548) [Constant]_output: 3c873784
(Unnamed Layer* 549) [Shuffle]_output: 3c873784
InceptionV4/InceptionV4/Mixed_6d/Branch_2/Conv2d_0e_1x7/BatchNorm/batchnorm/add_1:0: 3d28d2f5
InceptionV4/InceptionV4/Mixed_6d/Branch_2/Conv2d_0e_1x7/Relu:0: 3d839104
InceptionV4/InceptionV4/Mixed_6d/Branch_1/Conv2d_0a_1x1/convolution__1022:0: 3d7257da
InceptionV4/InceptionV4/Mixed_6d/Branch_1/Conv2d_0a_1x1/convolution:0: 3d442597
InceptionV4/InceptionV4/Mixed_6d/Branch_1/Conv2d_0a_1x1/convolution__1023:0: 3d442597
(Unnamed Layer* 555) [Constant]_output: 3ca0da55
(Unnamed Layer* 556) [Shuffle]_output: 3ca0da55
InceptionV4/InceptionV4/Mixed_6d/Branch_1/Conv2d_0a_1x1/BatchNorm/batchnorm/mul:0: 3d9d3b68
(Unnamed Layer* 558) [Constant]_output: 3c9af407
(Unnamed Layer* 559) [Shuffle]_output: 3c9af407
InceptionV4/InceptionV4/Mixed_6d/Branch_1/Conv2d_0a_1x1/BatchNorm/batchnorm/add_1:0: 3d7405d2
InceptionV4/InceptionV4/Mixed_6d/Branch_1/Conv2d_0a_1x1/Relu:0: 3d6ecbc9
InceptionV4/InceptionV4/Mixed_6d/Branch_1/Conv2d_0b_1x7/BatchNorm/batchnorm/mul__1024:0: 3d6ecbc9
InceptionV4/InceptionV4/Mixed_6d/Branch_1/Conv2d_0b_1x7/BatchNorm/batchnorm/mul:0: 3d8b895d
InceptionV4/InceptionV4/Mixed_6d/Branch_1/Conv2d_0b_1x7/BatchNorm/batchnorm/mul__1025:0: 3d8b895d
(Unnamed Layer* 565) [Constant]_output: 3c3cabeb
(Unnamed Layer* 566) [Shuffle]_output: 3c3cabeb
InceptionV4/InceptionV4/Mixed_6d/Branch_1/Conv2d_0b_1x7/BatchNorm/batchnorm/add_1:0: 3d796d46
InceptionV4/InceptionV4/Mixed_6d/Branch_1/Conv2d_0b_1x7/Relu:0: 3d594d27
InceptionV4/InceptionV4/Mixed_6d/Branch_1/Conv2d_0c_7x1/BatchNorm/batchnorm/mul__1026:0: 3d594d27
InceptionV4/InceptionV4/Mixed_6d/Branch_1/Conv2d_0c_7x1/BatchNorm/batchnorm/mul:0: 3d6da80e
InceptionV4/InceptionV4/Mixed_6d/Branch_1/Conv2d_0c_7x1/BatchNorm/batchnorm/mul__1027:0: 3d6da80e
(Unnamed Layer* 572) [Constant]_output: 3c481cb1
(Unnamed Layer* 573) [Shuffle]_output: 3c481cb1
InceptionV4/InceptionV4/Mixed_6d/Branch_1/Conv2d_0c_7x1/BatchNorm/batchnorm/add_1:0: 3d6c2938
InceptionV4/InceptionV4/Mixed_6d/Branch_1/Conv2d_0c_7x1/Relu:0: 3d839104
InceptionV4/InceptionV4/Mixed_6d/Branch_0/Conv2d_0a_1x1/BatchNorm/batchnorm/mul__1020:0: 3d7257da
InceptionV4/InceptionV4/Mixed_6d/Branch_0/Conv2d_0a_1x1/BatchNorm/batchnorm/mul:0: 3dd71348
InceptionV4/InceptionV4/Mixed_6d/Branch_0/Conv2d_0a_1x1/BatchNorm/batchnorm/mul__1021:0: 3dd71348
(Unnamed Layer* 579) [Constant]_output: 3cd280f4
(Unnamed Layer* 580) [Shuffle]_output: 3cd280f4
InceptionV4/InceptionV4/Mixed_6d/Branch_0/Conv2d_0a_1x1/BatchNorm/batchnorm/add_1:0: 3dec6f02
InceptionV4/InceptionV4/Mixed_6d/Branch_0/Conv2d_0a_1x1/Relu:0: 3d839104
InceptionV4/InceptionV4/Mixed_6d/Branch_3/AvgPool_0a_3x3/AvgPool__1016:0: 3d7257da
InceptionV4/InceptionV4/Mixed_6d/Branch_3/AvgPool_0a_3x3/AvgPool:0: 3d7257da
InceptionV4/InceptionV4/Mixed_6d/Branch_3/Conv2d_0b_1x1/BatchNorm/batchnorm/mul:0: 3d876a4f
InceptionV4/InceptionV4/Mixed_6d/Branch_3/Conv2d_0b_1x1/BatchNorm/batchnorm/mul__1019:0: 3d876a4f
(Unnamed Layer* 588) [Constant]_output: 3c5136ab
(Unnamed Layer* 589) [Shuffle]_output: 3c5136ab
InceptionV4/InceptionV4/Mixed_6d/Branch_3/Conv2d_0b_1x1/BatchNorm/batchnorm/add_1:0: 3d7dde39
InceptionV4/InceptionV4/Mixed_6d/Branch_3/Conv2d_0b_1x1/Relu:0: 3d839104
InceptionV4/InceptionV4/Mixed_6d/concat_v2:0: 3d839104
InceptionV4/InceptionV4/Mixed_6e/Branch_2/Conv2d_0a_1x1/convolution__1050:0: 3d839104
InceptionV4/InceptionV4/Mixed_6e/Branch_2/Conv2d_0a_1x1/convolution:0: 3d1e8459
InceptionV4/InceptionV4/Mixed_6e/Branch_2/Conv2d_0a_1x1/convolution__1051:0: 3d1e8459
(Unnamed Layer* 596) [Constant]_output: 3ccc64bd
(Unnamed Layer* 597) [Shuffle]_output: 3ccc64bd
InceptionV4/InceptionV4/Mixed_6e/Branch_2/Conv2d_0a_1x1/BatchNorm/batchnorm/mul:0: 3dcea09a
(Unnamed Layer* 599) [Constant]_output: 3c833657
(Unnamed Layer* 600) [Shuffle]_output: 3c833657
InceptionV4/InceptionV4/Mixed_6e/Branch_2/Conv2d_0a_1x1/BatchNorm/batchnorm/add_1:0: 3dc40c8c
InceptionV4/InceptionV4/Mixed_6e/Branch_2/Conv2d_0a_1x1/Relu:0: 3d9423f6
InceptionV4/InceptionV4/Mixed_6e/Branch_2/Conv2d_0b_7x1/BatchNorm/batchnorm/mul__1052:0: 3d9423f6
InceptionV4/InceptionV4/Mixed_6e/Branch_2/Conv2d_0b_7x1/BatchNorm/batchnorm/mul:0: 3da49763
InceptionV4/InceptionV4/Mixed_6e/Branch_2/Conv2d_0b_7x1/BatchNorm/batchnorm/mul__1053:0: 3da49763
(Unnamed Layer* 606) [Constant]_output: 3ca288b2
(Unnamed Layer* 607) [Shuffle]_output: 3ca288b2
InceptionV4/InceptionV4/Mixed_6e/Branch_2/Conv2d_0b_7x1/BatchNorm/batchnorm/add_1:0: 3d8c08ce
InceptionV4/InceptionV4/Mixed_6e/Branch_2/Conv2d_0b_7x1/Relu:0: 3d695475
InceptionV4/InceptionV4/Mixed_6e/Branch_2/Conv2d_0c_1x7/BatchNorm/batchnorm/mul__1054:0: 3d695475
InceptionV4/InceptionV4/Mixed_6e/Branch_2/Conv2d_0c_1x7/BatchNorm/batchnorm/mul:0: 3d56f127
InceptionV4/InceptionV4/Mixed_6e/Branch_2/Conv2d_0c_1x7/BatchNorm/batchnorm/mul__1055:0: 3d56f127
(Unnamed Layer* 613) [Constant]_output: 3c707edb
(Unnamed Layer* 614) [Shuffle]_output: 3c707edb
InceptionV4/InceptionV4/Mixed_6e/Branch_2/Conv2d_0c_1x7/BatchNorm/batchnorm/add_1:0: 3d41f1bd
InceptionV4/InceptionV4/Mixed_6e/Branch_2/Conv2d_0c_1x7/Relu:0: 3d2b5bd4
InceptionV4/InceptionV4/Mixed_6e/Branch_2/Conv2d_0d_7x1/BatchNorm/batchnorm/mul__1056:0: 3d2b5bd4
InceptionV4/InceptionV4/Mixed_6e/Branch_2/Conv2d_0d_7x1/BatchNorm/batchnorm/mul:0: 3d433a64
InceptionV4/InceptionV4/Mixed_6e/Branch_2/Conv2d_0d_7x1/BatchNorm/batchnorm/mul__1057:0: 3d433a64
(Unnamed Layer* 620) [Constant]_output: 3caa9c5c
(Unnamed Layer* 621) [Shuffle]_output: 3caa9c5c
InceptionV4/InceptionV4/Mixed_6e/Branch_2/Conv2d_0d_7x1/BatchNorm/batchnorm/add_1:0: 3d314e01
InceptionV4/InceptionV4/Mixed_6e/Branch_2/Conv2d_0d_7x1/Relu:0: 3d314e01
InceptionV4/InceptionV4/Mixed_6e/Branch_2/Conv2d_0e_1x7/BatchNorm/batchnorm/mul__1058:0: 3d314e01
InceptionV4/InceptionV4/Mixed_6e/Branch_2/Conv2d_0e_1x7/BatchNorm/batchnorm/mul:0: 3d2937a7
InceptionV4/InceptionV4/Mixed_6e/Branch_2/Conv2d_0e_1x7/BatchNorm/batchnorm/mul__1059:0: 3d2937a7
(Unnamed Layer* 627) [Constant]_output: 3c66c676
(Unnamed Layer* 628) [Shuffle]_output: 3c66c676
InceptionV4/InceptionV4/Mixed_6e/Branch_2/Conv2d_0e_1x7/BatchNorm/batchnorm/add_1:0: 3d30981b
InceptionV4/InceptionV4/Mixed_6e/Branch_2/Conv2d_0e_1x7/Relu:0: 3d7019e2
InceptionV4/InceptionV4/Mixed_6e/Branch_1/Conv2d_0a_1x1/convolution__1044:0: 3d839104
InceptionV4/InceptionV4/Mixed_6e/Branch_1/Conv2d_0a_1x1/convolution:0: 3d46049f
InceptionV4/InceptionV4/Mixed_6e/Branch_1/Conv2d_0a_1x1/convolution__1045:0: 3d46049f
(Unnamed Layer* 634) [Constant]_output: 3c9e3db6
(Unnamed Layer* 635) [Shuffle]_output: 3c9e3db6
InceptionV4/InceptionV4/Mixed_6e/Branch_1/Conv2d_0a_1x1/BatchNorm/batchnorm/mul:0: 3daf6276
(Unnamed Layer* 637) [Constant]_output: 3cc38c7a
(Unnamed Layer* 638) [Shuffle]_output: 3cc38c7a
InceptionV4/InceptionV4/Mixed_6e/Branch_1/Conv2d_0a_1x1/BatchNorm/batchnorm/add_1:0: 3d97597c
InceptionV4/InceptionV4/Mixed_6e/Branch_1/Conv2d_0a_1x1/Relu:0: 3d930120
InceptionV4/InceptionV4/Mixed_6e/Branch_1/Conv2d_0b_1x7/BatchNorm/batchnorm/mul__1046:0: 3d930120
InceptionV4/InceptionV4/Mixed_6e/Branch_1/Conv2d_0b_1x7/BatchNorm/batchnorm/mul:0: 3dbb324b
InceptionV4/InceptionV4/Mixed_6e/Branch_1/Conv2d_0b_1x7/BatchNorm/batchnorm/mul__1047:0: 3dbb324b
(Unnamed Layer* 644) [Constant]_output: 3c45cc4a
(Unnamed Layer* 645) [Shuffle]_output: 3c45cc4a
InceptionV4/InceptionV4/Mixed_6e/Branch_1/Conv2d_0b_1x7/BatchNorm/batchnorm/add_1:0: 3d9f713b
InceptionV4/InceptionV4/Mixed_6e/Branch_1/Conv2d_0b_1x7/Relu:0: 3d641a0b
InceptionV4/InceptionV4/Mixed_6e/Branch_1/Conv2d_0c_7x1/BatchNorm/batchnorm/mul__1048:0: 3d641a0b
InceptionV4/InceptionV4/Mixed_6e/Branch_1/Conv2d_0c_7x1/BatchNorm/batchnorm/mul:0: 3d74f5e1
InceptionV4/InceptionV4/Mixed_6e/Branch_1/Conv2d_0c_7x1/BatchNorm/batchnorm/mul__1049:0: 3d74f5e1
(Unnamed Layer* 651) [Constant]_output: 3c60285f
(Unnamed Layer* 652) [Shuffle]_output: 3c60285f
InceptionV4/InceptionV4/Mixed_6e/Branch_1/Conv2d_0c_7x1/BatchNorm/batchnorm/add_1:0: 3d5a5a6d
InceptionV4/InceptionV4/Mixed_6e/Branch_1/Conv2d_0c_7x1/Relu:0: 3d7019e2
InceptionV4/InceptionV4/Mixed_6e/Branch_0/Conv2d_0a_1x1/BatchNorm/batchnorm/mul__1042:0: 3d839104
InceptionV4/InceptionV4/Mixed_6e/Branch_0/Conv2d_0a_1x1/BatchNorm/batchnorm/mul:0: 3dae9537
InceptionV4/InceptionV4/Mixed_6e/Branch_0/Conv2d_0a_1x1/BatchNorm/batchnorm/mul__1043:0: 3dae9537
(Unnamed Layer* 658) [Constant]_output: 3cc0dd7a
(Unnamed Layer* 659) [Shuffle]_output: 3cc0dd7a
InceptionV4/InceptionV4/Mixed_6e/Branch_0/Conv2d_0a_1x1/BatchNorm/batchnorm/add_1:0: 3d9aede9
InceptionV4/InceptionV4/Mixed_6e/Branch_0/Conv2d_0a_1x1/Relu:0: 3d7019e2
InceptionV4/InceptionV4/Mixed_6e/Branch_3/AvgPool_0a_3x3/AvgPool__1038:0: 3d839104
InceptionV4/InceptionV4/Mixed_6e/Branch_3/AvgPool_0a_3x3/AvgPool:0: 3d839104
InceptionV4/InceptionV4/Mixed_6e/Branch_3/Conv2d_0b_1x1/BatchNorm/batchnorm/mul:0: 3d77b5aa
InceptionV4/InceptionV4/Mixed_6e/Branch_3/Conv2d_0b_1x1/BatchNorm/batchnorm/mul__1041:0: 3d77b5aa
(Unnamed Layer* 667) [Constant]_output: 3c7ce7f3
(Unnamed Layer* 668) [Shuffle]_output: 3c7ce7f3
InceptionV4/InceptionV4/Mixed_6e/Branch_3/Conv2d_0b_1x1/BatchNorm/batchnorm/add_1:0: 3d58d8de
InceptionV4/InceptionV4/Mixed_6e/Branch_3/Conv2d_0b_1x1/Relu:0: 3d7019e2
InceptionV4/InceptionV4/Mixed_6e/concat_v2:0: 3d7019e2
InceptionV4/InceptionV4/Mixed_6f/Branch_2/Conv2d_0a_1x1/convolution__1072:0: 3d7019e2
InceptionV4/InceptionV4/Mixed_6f/Branch_2/Conv2d_0a_1x1/convolution:0: 3d372b5d
InceptionV4/InceptionV4/Mixed_6f/Branch_2/Conv2d_0a_1x1/convolution__1073:0: 3d372b5d
(Unnamed Layer* 675) [Constant]_output: 3cb951d2
(Unnamed Layer* 676) [Shuffle]_output: 3cb951d2
InceptionV4/InceptionV4/Mixed_6f/Branch_2/Conv2d_0a_1x1/BatchNorm/batchnorm/mul:0: 3d8ad0cd
(Unnamed Layer* 678) [Constant]_output: 3cb995be
(Unnamed Layer* 679) [Shuffle]_output: 3cb995be
InceptionV4/InceptionV4/Mixed_6f/Branch_2/Conv2d_0a_1x1/BatchNorm/batchnorm/add_1:0: 3d8b25ff
InceptionV4/InceptionV4/Mixed_6f/Branch_2/Conv2d_0a_1x1/Relu:0: 3d7adf07
InceptionV4/InceptionV4/Mixed_6f/Branch_2/Conv2d_0b_7x1/BatchNorm/batchnorm/mul__1074:0: 3d7adf07
InceptionV4/InceptionV4/Mixed_6f/Branch_2/Conv2d_0b_7x1/BatchNorm/batchnorm/mul:0: 3d7b47d1
InceptionV4/InceptionV4/Mixed_6f/Branch_2/Conv2d_0b_7x1/BatchNorm/batchnorm/mul__1075:0: 3d7b47d1
(Unnamed Layer* 685) [Constant]_output: 3c96be17
(Unnamed Layer* 686) [Shuffle]_output: 3c96be17
InceptionV4/InceptionV4/Mixed_6f/Branch_2/Conv2d_0b_7x1/BatchNorm/batchnorm/add_1:0: 3d58c231
InceptionV4/InceptionV4/Mixed_6f/Branch_2/Conv2d_0b_7x1/Relu:0: 3d3fbfe1
InceptionV4/InceptionV4/Mixed_6f/Branch_2/Conv2d_0c_1x7/BatchNorm/batchnorm/mul__1076:0: 3d3fbfe1
InceptionV4/InceptionV4/Mixed_6f/Branch_2/Conv2d_0c_1x7/BatchNorm/batchnorm/mul:0: 3d67055b
InceptionV4/InceptionV4/Mixed_6f/Branch_2/Conv2d_0c_1x7/BatchNorm/batchnorm/mul__1077:0: 3d67055b
(Unnamed Layer* 692) [Constant]_output: 3c865afe
(Unnamed Layer* 693) [Shuffle]_output: 3c865afe
InceptionV4/InceptionV4/Mixed_6f/Branch_2/Conv2d_0c_1x7/BatchNorm/batchnorm/add_1:0: 3d4dfb1f
InceptionV4/InceptionV4/Mixed_6f/Branch_2/Conv2d_0c_1x7/Relu:0: 3d4f858e
InceptionV4/InceptionV4/Mixed_6f/Branch_2/Conv2d_0d_7x1/BatchNorm/batchnorm/mul__1078:0: 3d4f858e
InceptionV4/InceptionV4/Mixed_6f/Branch_2/Conv2d_0d_7x1/BatchNorm/batchnorm/mul:0: 3d5e409c
InceptionV4/InceptionV4/Mixed_6f/Branch_2/Conv2d_0d_7x1/BatchNorm/batchnorm/mul__1079:0: 3d5e409c
(Unnamed Layer* 699) [Constant]_output: 3c946527
(Unnamed Layer* 700) [Shuffle]_output: 3c946527
InceptionV4/InceptionV4/Mixed_6f/Branch_2/Conv2d_0d_7x1/BatchNorm/batchnorm/add_1:0: 3d2e7d06
InceptionV4/InceptionV4/Mixed_6f/Branch_2/Conv2d_0d_7x1/Relu:0: 3d3b84ec
InceptionV4/InceptionV4/Mixed_6f/Branch_2/Conv2d_0e_1x7/BatchNorm/batchnorm/mul__1080:0: 3d3b84ec
InceptionV4/InceptionV4/Mixed_6f/Branch_2/Conv2d_0e_1x7/BatchNorm/batchnorm/mul:0: 3d8871d4
InceptionV4/InceptionV4/Mixed_6f/Branch_2/Conv2d_0e_1x7/BatchNorm/batchnorm/mul__1081:0: 3d8871d4
(Unnamed Layer* 706) [Constant]_output: 3c55527b
(Unnamed Layer* 707) [Shuffle]_output: 3c55527b
InceptionV4/InceptionV4/Mixed_6f/Branch_2/Conv2d_0e_1x7/BatchNorm/batchnorm/add_1:0: 3d8003de
InceptionV4/InceptionV4/Mixed_6f/Branch_2/Conv2d_0e_1x7/Relu:0: 3d4eb84c
InceptionV4/InceptionV4/Mixed_6f/Branch_1/Conv2d_0a_1x1/convolution__1066:0: 3d7019e2
InceptionV4/InceptionV4/Mixed_6f/Branch_1/Conv2d_0a_1x1/convolution:0: 3d48c90f
InceptionV4/InceptionV4/Mixed_6f/Branch_1/Conv2d_0a_1x1/convolution__1067:0: 3d48c90f
(Unnamed Layer* 713) [Constant]_output: 3c89b21b
(Unnamed Layer* 714) [Shuffle]_output: 3c89b21b
InceptionV4/InceptionV4/Mixed_6f/Branch_1/Conv2d_0a_1x1/BatchNorm/batchnorm/mul:0: 3d904a88
(Unnamed Layer* 716) [Constant]_output: 3c9f04c8
(Unnamed Layer* 717) [Shuffle]_output: 3c9f04c8
InceptionV4/InceptionV4/Mixed_6f/Branch_1/Conv2d_0a_1x1/BatchNorm/batchnorm/add_1:0: 3d8b57c8
InceptionV4/InceptionV4/Mixed_6f/Branch_1/Conv2d_0a_1x1/Relu:0: 3d4668c6
InceptionV4/InceptionV4/Mixed_6f/Branch_1/Conv2d_0b_1x7/BatchNorm/batchnorm/mul__1068:0: 3d4668c6
InceptionV4/InceptionV4/Mixed_6f/Branch_1/Conv2d_0b_1x7/BatchNorm/batchnorm/mul:0: 3d62d33b
InceptionV4/InceptionV4/Mixed_6f/Branch_1/Conv2d_0b_1x7/BatchNorm/batchnorm/mul__1069:0: 3d62d33b
(Unnamed Layer* 723) [Constant]_output: 3c9dc24c
(Unnamed Layer* 724) [Shuffle]_output: 3c9dc24c
InceptionV4/InceptionV4/Mixed_6f/Branch_1/Conv2d_0b_1x7/BatchNorm/batchnorm/add_1:0: 3d41b7a7
InceptionV4/InceptionV4/Mixed_6f/Branch_1/Conv2d_0b_1x7/Relu:0: 3d41b7a7
InceptionV4/InceptionV4/Mixed_6f/Branch_1/Conv2d_0c_7x1/BatchNorm/batchnorm/mul__1070:0: 3d41b7a7
InceptionV4/InceptionV4/Mixed_6f/Branch_1/Conv2d_0c_7x1/BatchNorm/batchnorm/mul:0: 3d5412f3
InceptionV4/InceptionV4/Mixed_6f/Branch_1/Conv2d_0c_7x1/BatchNorm/batchnorm/mul__1071:0: 3d5412f3
(Unnamed Layer* 730) [Constant]_output: 3c4fe164
(Unnamed Layer* 731) [Shuffle]_output: 3c4fe164
InceptionV4/InceptionV4/Mixed_6f/Branch_1/Conv2d_0c_7x1/BatchNorm/batchnorm/add_1:0: 3d5ca982
InceptionV4/InceptionV4/Mixed_6f/Branch_1/Conv2d_0c_7x1/Relu:0: 3d4eb84c
InceptionV4/InceptionV4/Mixed_6f/Branch_0/Conv2d_0a_1x1/BatchNorm/batchnorm/mul__1064:0: 3d7019e2
InceptionV4/InceptionV4/Mixed_6f/Branch_0/Conv2d_0a_1x1/BatchNorm/batchnorm/mul:0: 3d886d14
InceptionV4/InceptionV4/Mixed_6f/Branch_0/Conv2d_0a_1x1/BatchNorm/batchnorm/mul__1065:0: 3d886d14
(Unnamed Layer* 737) [Constant]_output: 3c6cb1ba
(Unnamed Layer* 738) [Shuffle]_output: 3c6cb1ba
InceptionV4/InceptionV4/Mixed_6f/Branch_0/Conv2d_0a_1x1/BatchNorm/batchnorm/add_1:0: 3d820fab
InceptionV4/InceptionV4/Mixed_6f/Branch_0/Conv2d_0a_1x1/Relu:0: 3d4eb84c
InceptionV4/InceptionV4/Mixed_6f/Branch_3/AvgPool_0a_3x3/AvgPool__1060:0: 3d7019e2
InceptionV4/InceptionV4/Mixed_6f/Branch_3/AvgPool_0a_3x3/AvgPool:0: 3d7019e2
InceptionV4/InceptionV4/Mixed_6f/Branch_3/Conv2d_0b_1x1/BatchNorm/batchnorm/mul:0: 3d7d54c7
InceptionV4/InceptionV4/Mixed_6f/Branch_3/Conv2d_0b_1x1/BatchNorm/batchnorm/mul__1063:0: 3d7d54c7
(Unnamed Layer* 746) [Constant]_output: 3c8a235b
(Unnamed Layer* 747) [Shuffle]_output: 3c8a235b
InceptionV4/InceptionV4/Mixed_6f/Branch_3/Conv2d_0b_1x1/BatchNorm/batchnorm/add_1:0: 3d601d6f
InceptionV4/InceptionV4/Mixed_6f/Branch_3/Conv2d_0b_1x1/Relu:0: 3d4eb84c
InceptionV4/InceptionV4/Mixed_6f/concat_v2:0: 3d4eb84c
InceptionV4/InceptionV4/Mixed_6g/Branch_2/Conv2d_0a_1x1/convolution__1094:0: 3d4eb84c
InceptionV4/InceptionV4/Mixed_6g/Branch_2/Conv2d_0a_1x1/convolution:0: 3d0e35e2
InceptionV4/InceptionV4/Mixed_6g/Branch_2/Conv2d_0a_1x1/convolution__1095:0: 3d0e35e2
(Unnamed Layer* 754) [Constant]_output: 3ca468ac
(Unnamed Layer* 755) [Shuffle]_output: 3ca468ac
InceptionV4/InceptionV4/Mixed_6g/Branch_2/Conv2d_0a_1x1/BatchNorm/batchnorm/mul:0: 3d7dc80e
(Unnamed Layer* 757) [Constant]_output: 3c9aa6f0
(Unnamed Layer* 758) [Shuffle]_output: 3c9aa6f0
InceptionV4/InceptionV4/Mixed_6g/Branch_2/Conv2d_0a_1x1/BatchNorm/batchnorm/add_1:0: 3d4dc1b8
InceptionV4/InceptionV4/Mixed_6g/Branch_2/Conv2d_0a_1x1/Relu:0: 3d576f23
InceptionV4/InceptionV4/Mixed_6g/Branch_2/Conv2d_0b_7x1/BatchNorm/batchnorm/mul__1096:0: 3d576f23
InceptionV4/InceptionV4/Mixed_6g/Branch_2/Conv2d_0b_7x1/BatchNorm/batchnorm/mul:0: 3d5246fb
InceptionV4/InceptionV4/Mixed_6g/Branch_2/Conv2d_0b_7x1/BatchNorm/batchnorm/mul__1097:0: 3d5246fb
(Unnamed Layer* 764) [Constant]_output: 3c336103
(Unnamed Layer* 765) [Shuffle]_output: 3c336103
InceptionV4/InceptionV4/Mixed_6g/Branch_2/Conv2d_0b_7x1/BatchNorm/batchnorm/add_1:0: 3d409e25
InceptionV4/InceptionV4/Mixed_6g/Branch_2/Conv2d_0b_7x1/Relu:0: 3d3f3db4
InceptionV4/InceptionV4/Mixed_6g/Branch_2/Conv2d_0c_1x7/BatchNorm/batchnorm/mul__1098:0: 3d3f3db4
InceptionV4/InceptionV4/Mixed_6g/Branch_2/Conv2d_0c_1x7/BatchNorm/batchnorm/mul:0: 3d6e9256
InceptionV4/InceptionV4/Mixed_6g/Branch_2/Conv2d_0c_1x7/BatchNorm/batchnorm/mul__1099:0: 3d6e9256
(Unnamed Layer* 771) [Constant]_output: 3c40cd4c
(Unnamed Layer* 772) [Shuffle]_output: 3c40cd4c
InceptionV4/InceptionV4/Mixed_6g/Branch_2/Conv2d_0c_1x7/BatchNorm/batchnorm/add_1:0: 3d4eb7ab
InceptionV4/InceptionV4/Mixed_6g/Branch_2/Conv2d_0c_1x7/Relu:0: 3d4209a0
InceptionV4/InceptionV4/Mixed_6g/Branch_2/Conv2d_0d_7x1/BatchNorm/batchnorm/mul__1100:0: 3d4209a0
InceptionV4/InceptionV4/Mixed_6g/Branch_2/Conv2d_0d_7x1/BatchNorm/batchnorm/mul:0: 3d7d2301
InceptionV4/InceptionV4/Mixed_6g/Branch_2/Conv2d_0d_7x1/BatchNorm/batchnorm/mul__1101:0: 3d7d2301
(Unnamed Layer* 778) [Constant]_output: 3c632255
(Unnamed Layer* 779) [Shuffle]_output: 3c632255
InceptionV4/InceptionV4/Mixed_6g/Branch_2/Conv2d_0d_7x1/BatchNorm/batchnorm/add_1:0: 3d7d0db9
InceptionV4/InceptionV4/Mixed_6g/Branch_2/Conv2d_0d_7x1/Relu:0: 3d7d0db9
InceptionV4/InceptionV4/Mixed_6g/Branch_2/Conv2d_0e_1x7/BatchNorm/batchnorm/mul__1102:0: 3d7d0db9
InceptionV4/InceptionV4/Mixed_6g/Branch_2/Conv2d_0e_1x7/BatchNorm/batchnorm/mul:0: 3d73f68a
InceptionV4/InceptionV4/Mixed_6g/Branch_2/Conv2d_0e_1x7/BatchNorm/batchnorm/mul__1103:0: 3d73f68a
(Unnamed Layer* 785) [Constant]_output: 3c718dc8
(Unnamed Layer* 786) [Shuffle]_output: 3c718dc8
InceptionV4/InceptionV4/Mixed_6g/Branch_2/Conv2d_0e_1x7/BatchNorm/batchnorm/add_1:0: 3d64e042
InceptionV4/InceptionV4/Mixed_6g/Branch_2/Conv2d_0e_1x7/Relu:0: 3d50fa81
InceptionV4/InceptionV4/Mixed_6g/Branch_1/Conv2d_0a_1x1/convolution__1088:0: 3d4eb84c
InceptionV4/InceptionV4/Mixed_6g/Branch_1/Conv2d_0a_1x1/convolution:0: 3cfaa33d
InceptionV4/InceptionV4/Mixed_6g/Branch_1/Conv2d_0a_1x1/convolution__1089:0: 3cfaa33d
(Unnamed Layer* 792) [Constant]_output: 3ca2d848
(Unnamed Layer* 793) [Shuffle]_output: 3ca2d848
InceptionV4/InceptionV4/Mixed_6g/Branch_1/Conv2d_0a_1x1/BatchNorm/batchnorm/mul:0: 3d658a2f
(Unnamed Layer* 795) [Constant]_output: 3c5c2981
(Unnamed Layer* 796) [Shuffle]_output: 3c5c2981
InceptionV4/InceptionV4/Mixed_6g/Branch_1/Conv2d_0a_1x1/BatchNorm/batchnorm/add_1:0: 3d46a21a
InceptionV4/InceptionV4/Mixed_6g/Branch_1/Conv2d_0a_1x1/Relu:0: 3d4c15e3
InceptionV4/InceptionV4/Mixed_6g/Branch_1/Conv2d_0b_1x7/BatchNorm/batchnorm/mul__1090:0: 3d4c15e3
InceptionV4/InceptionV4/Mixed_6g/Branch_1/Conv2d_0b_1x7/BatchNorm/batchnorm/mul:0: 3d86c5cc
InceptionV4/InceptionV4/Mixed_6g/Branch_1/Conv2d_0b_1x7/BatchNorm/batchnorm/mul__1091:0: 3d86c5cc
(Unnamed Layer* 802) [Constant]_output: 3c2c5c41
(Unnamed Layer* 803) [Shuffle]_output: 3c2c5c41
InceptionV4/InceptionV4/Mixed_6g/Branch_1/Conv2d_0b_1x7/BatchNorm/batchnorm/add_1:0: 3d11094e
InceptionV4/InceptionV4/Mixed_6g/Branch_1/Conv2d_0b_1x7/Relu:0: 3d715077
InceptionV4/InceptionV4/Mixed_6g/Branch_1/Conv2d_0c_7x1/BatchNorm/batchnorm/mul__1092:0: 3d715077
InceptionV4/InceptionV4/Mixed_6g/Branch_1/Conv2d_0c_7x1/BatchNorm/batchnorm/mul:0: 3d517338
InceptionV4/InceptionV4/Mixed_6g/Branch_1/Conv2d_0c_7x1/BatchNorm/batchnorm/mul__1093:0: 3d517338
(Unnamed Layer* 809) [Constant]_output: 3c70ae0e
(Unnamed Layer* 810) [Shuffle]_output: 3c70ae0e
InceptionV4/InceptionV4/Mixed_6g/Branch_1/Conv2d_0c_7x1/BatchNorm/batchnorm/add_1:0: 3d452eb1
InceptionV4/InceptionV4/Mixed_6g/Branch_1/Conv2d_0c_7x1/Relu:0: 3d50fa81
InceptionV4/InceptionV4/Mixed_6g/Branch_0/Conv2d_0a_1x1/BatchNorm/batchnorm/mul__1086:0: 3d4eb84c
InceptionV4/InceptionV4/Mixed_6g/Branch_0/Conv2d_0a_1x1/BatchNorm/batchnorm/mul:0: 3d654183
InceptionV4/InceptionV4/Mixed_6g/Branch_0/Conv2d_0a_1x1/BatchNorm/batchnorm/mul__1087:0: 3d654183
(Unnamed Layer* 816) [Constant]_output: 3c8a78bc
(Unnamed Layer* 817) [Shuffle]_output: 3c8a78bc
InceptionV4/InceptionV4/Mixed_6g/Branch_0/Conv2d_0a_1x1/BatchNorm/batchnorm/add_1:0: 3d6142aa
InceptionV4/InceptionV4/Mixed_6g/Branch_0/Conv2d_0a_1x1/Relu:0: 3d50fa81
InceptionV4/InceptionV4/Mixed_6g/Branch_3/AvgPool_0a_3x3/AvgPool__1082:0: 3d4eb84c
InceptionV4/InceptionV4/Mixed_6g/Branch_3/AvgPool_0a_3x3/AvgPool:0: 3d4eb84c
InceptionV4/InceptionV4/Mixed_6g/Branch_3/Conv2d_0b_1x1/BatchNorm/batchnorm/mul:0: 3d5403fd
InceptionV4/InceptionV4/Mixed_6g/Branch_3/Conv2d_0b_1x1/BatchNorm/batchnorm/mul__1085:0: 3d5403fd
(Unnamed Layer* 825) [Constant]_output: 3c21fc3d
(Unnamed Layer* 826) [Shuffle]_output: 3c21fc3d
InceptionV4/InceptionV4/Mixed_6g/Branch_3/Conv2d_0b_1x1/BatchNorm/batchnorm/add_1:0: 3d4dc8a1
InceptionV4/InceptionV4/Mixed_6g/Branch_3/Conv2d_0b_1x1/Relu:0: 3d50fa81
InceptionV4/InceptionV4/Mixed_6g/concat_v2:0: 3d50fa81
InceptionV4/InceptionV4/Mixed_6h/Branch_2/Conv2d_0a_1x1/convolution__1116:0: 3d50fa81
InceptionV4/InceptionV4/Mixed_6h/Branch_2/Conv2d_0a_1x1/convolution:0: 3d090132
InceptionV4/InceptionV4/Mixed_6h/Branch_2/Conv2d_0a_1x1/convolution__1117:0: 3d090132
(Unnamed Layer* 833) [Constant]_output: 3cbcf699
(Unnamed Layer* 834) [Shuffle]_output: 3cbcf699
InceptionV4/InceptionV4/Mixed_6h/Branch_2/Conv2d_0a_1x1/BatchNorm/batchnorm/mul:0: 3d6b72c5
(Unnamed Layer* 836) [Constant]_output: 3cab0e23
(Unnamed Layer* 837) [Shuffle]_output: 3cab0e23
InceptionV4/InceptionV4/Mixed_6h/Branch_2/Conv2d_0a_1x1/BatchNorm/batchnorm/add_1:0: 3d613a01
InceptionV4/InceptionV4/Mixed_6h/Branch_2/Conv2d_0a_1x1/Relu:0: 3d6287fa
InceptionV4/InceptionV4/Mixed_6h/Branch_2/Conv2d_0b_7x1/BatchNorm/batchnorm/mul__1118:0: 3d6287fa
InceptionV4/InceptionV4/Mixed_6h/Branch_2/Conv2d_0b_7x1/BatchNorm/batchnorm/mul:0: 3d70e2bb
InceptionV4/InceptionV4/Mixed_6h/Branch_2/Conv2d_0b_7x1/BatchNorm/batchnorm/mul__1119:0: 3d70e2bb
(Unnamed Layer* 843) [Constant]_output: 3c266b86
(Unnamed Layer* 844) [Shuffle]_output: 3c266b86
InceptionV4/InceptionV4/Mixed_6h/Branch_2/Conv2d_0b_7x1/BatchNorm/batchnorm/add_1:0: 3d573af5
InceptionV4/InceptionV4/Mixed_6h/Branch_2/Conv2d_0b_7x1/Relu:0: 3d69934c
InceptionV4/InceptionV4/Mixed_6h/Branch_2/Conv2d_0c_1x7/BatchNorm/batchnorm/mul__1120:0: 3d69934c
InceptionV4/InceptionV4/Mixed_6h/Branch_2/Conv2d_0c_1x7/BatchNorm/batchnorm/mul:0: 3d488d80
InceptionV4/InceptionV4/Mixed_6h/Branch_2/Conv2d_0c_1x7/BatchNorm/batchnorm/mul__1121:0: 3d488d80
(Unnamed Layer* 850) [Constant]_output: 3c44249f
(Unnamed Layer* 851) [Shuffle]_output: 3c44249f
InceptionV4/InceptionV4/Mixed_6h/Branch_2/Conv2d_0c_1x7/BatchNorm/batchnorm/add_1:0: 3d353f5d
InceptionV4/InceptionV4/Mixed_6h/Branch_2/Conv2d_0c_1x7/Relu:0: 3d539666
InceptionV4/InceptionV4/Mixed_6h/Branch_2/Conv2d_0d_7x1/BatchNorm/batchnorm/mul__1122:0: 3d539666
InceptionV4/InceptionV4/Mixed_6h/Branch_2/Conv2d_0d_7x1/BatchNorm/batchnorm/mul:0: 3d765cc4
InceptionV4/InceptionV4/Mixed_6h/Branch_2/Conv2d_0d_7x1/BatchNorm/batchnorm/mul__1123:0: 3d765cc4
(Unnamed Layer* 857) [Constant]_output: 3c9c64d7
(Unnamed Layer* 858) [Shuffle]_output: 3c9c64d7
InceptionV4/InceptionV4/Mixed_6h/Branch_2/Conv2d_0d_7x1/BatchNorm/batchnorm/add_1:0: 3d65efe6
InceptionV4/InceptionV4/Mixed_6h/Branch_2/Conv2d_0d_7x1/Relu:0: 3d5c5273
InceptionV4/InceptionV4/Mixed_6h/Branch_2/Conv2d_0e_1x7/BatchNorm/batchnorm/mul__1124:0: 3d5c5273
InceptionV4/InceptionV4/Mixed_6h/Branch_2/Conv2d_0e_1x7/BatchNorm/batchnorm/mul:0: 3d5dee62
InceptionV4/InceptionV4/Mixed_6h/Branch_2/Conv2d_0e_1x7/BatchNorm/batchnorm/mul__1125:0: 3d5dee62
(Unnamed Layer* 864) [Constant]_output: 3c833282
(Unnamed Layer* 865) [Shuffle]_output: 3c833282
InceptionV4/InceptionV4/Mixed_6h/Branch_2/Conv2d_0e_1x7/BatchNorm/batchnorm/add_1:0: 3d814767
InceptionV4/InceptionV4/Mixed_6h/Branch_2/Conv2d_0e_1x7/Relu:0: 3d4c5830
InceptionV4/InceptionV4/Mixed_6h/Branch_1/Conv2d_0a_1x1/convolution__1110:0: 3d50fa81
InceptionV4/InceptionV4/Mixed_6h/Branch_1/Conv2d_0a_1x1/convolution:0: 3d1a0290
InceptionV4/InceptionV4/Mixed_6h/Branch_1/Conv2d_0a_1x1/convolution__1111:0: 3d1a0290
(Unnamed Layer* 871) [Constant]_output: 3ca9d119
(Unnamed Layer* 872) [Shuffle]_output: 3ca9d119
InceptionV4/InceptionV4/Mixed_6h/Branch_1/Conv2d_0a_1x1/BatchNorm/batchnorm/mul:0: 3d74c812
(Unnamed Layer* 874) [Constant]_output: 3c22a2bc
(Unnamed Layer* 875) [Shuffle]_output: 3c22a2bc
InceptionV4/InceptionV4/Mixed_6h/Branch_1/Conv2d_0a_1x1/BatchNorm/batchnorm/add_1:0: 3d5b47f2
InceptionV4/InceptionV4/Mixed_6h/Branch_1/Conv2d_0a_1x1/Relu:0: 3d40c825
InceptionV4/InceptionV4/Mixed_6h/Branch_1/Conv2d_0b_1x7/BatchNorm/batchnorm/mul__1112:0: 3d40c825
InceptionV4/InceptionV4/Mixed_6h/Branch_1/Conv2d_0b_1x7/BatchNorm/batchnorm/mul:0: 3d7bc026
InceptionV4/InceptionV4/Mixed_6h/Branch_1/Conv2d_0b_1x7/BatchNorm/batchnorm/mul__1113:0: 3d7bc026
(Unnamed Layer* 881) [Constant]_output: 3c071bcc
(Unnamed Layer* 882) [Shuffle]_output: 3c071bcc
InceptionV4/InceptionV4/Mixed_6h/Branch_1/Conv2d_0b_1x7/BatchNorm/batchnorm/add_1:0: 3d673ea0
InceptionV4/InceptionV4/Mixed_6h/Branch_1/Conv2d_0b_1x7/Relu:0: 3d7f246b
InceptionV4/InceptionV4/Mixed_6h/Branch_1/Conv2d_0c_7x1/BatchNorm/batchnorm/mul__1114:0: 3d7f246b
InceptionV4/InceptionV4/Mixed_6h/Branch_1/Conv2d_0c_7x1/BatchNorm/batchnorm/mul:0: 3d74ca44
InceptionV4/InceptionV4/Mixed_6h/Branch_1/Conv2d_0c_7x1/BatchNorm/batchnorm/mul__1115:0: 3d74ca44
(Unnamed Layer* 888) [Constant]_output: 3c1e4fb7
(Unnamed Layer* 889) [Shuffle]_output: 3c1e4fb7
InceptionV4/InceptionV4/Mixed_6h/Branch_1/Conv2d_0c_7x1/BatchNorm/batchnorm/add_1:0: 3d67969b
InceptionV4/InceptionV4/Mixed_6h/Branch_1/Conv2d_0c_7x1/Relu:0: 3d4c5830
InceptionV4/InceptionV4/Mixed_6h/Branch_0/Conv2d_0a_1x1/BatchNorm/batchnorm/mul__1108:0: 3d50fa81
InceptionV4/InceptionV4/Mixed_6h/Branch_0/Conv2d_0a_1x1/BatchNorm/batchnorm/mul:0: 3d62c278
InceptionV4/InceptionV4/Mixed_6h/Branch_0/Conv2d_0a_1x1/BatchNorm/batchnorm/mul__1109:0: 3d62c278
(Unnamed Layer* 895) [Constant]_output: 3c58be6e
(Unnamed Layer* 896) [Shuffle]_output: 3c58be6e
InceptionV4/InceptionV4/Mixed_6h/Branch_0/Conv2d_0a_1x1/BatchNorm/batchnorm/add_1:0: 3d70f189
InceptionV4/InceptionV4/Mixed_6h/Branch_0/Conv2d_0a_1x1/Relu:0: 3d4c5830
InceptionV4/InceptionV4/Mixed_6h/Branch_3/AvgPool_0a_3x3/AvgPool__1104:0: 3d50fa81
InceptionV4/InceptionV4/Mixed_6h/Branch_3/AvgPool_0a_3x3/AvgPool:0: 3d50fa81
InceptionV4/InceptionV4/Mixed_6h/Branch_3/Conv2d_0b_1x1/BatchNorm/batchnorm/mul:0: 3d69b84b
InceptionV4/InceptionV4/Mixed_6h/Branch_3/Conv2d_0b_1x1/BatchNorm/batchnorm/mul__1107:0: 3d69b84b
(Unnamed Layer* 904) [Constant]_output: 3c661b9f
(Unnamed Layer* 905) [Shuffle]_output: 3c661b9f
InceptionV4/InceptionV4/Mixed_6h/Branch_3/Conv2d_0b_1x1/BatchNorm/batchnorm/add_1:0: 3d6c5df5
InceptionV4/InceptionV4/Mixed_6h/Branch_3/Conv2d_0b_1x1/Relu:0: 3d4c5830
InceptionV4/InceptionV4/Mixed_6h/concat_v2:0: 3d4c5830
InceptionV4/InceptionV4/Mixed_7a/Branch_1/Conv2d_0a_1x1/convolution__1132:0: 3d4c5830
InceptionV4/InceptionV4/Mixed_7a/Branch_1/Conv2d_0a_1x1/convolution:0: 3c857b5e
InceptionV4/InceptionV4/Mixed_7a/Branch_1/Conv2d_0a_1x1/convolution__1133:0: 3c857b5e
(Unnamed Layer* 912) [Constant]_output: 3d8ccefa
(Unnamed Layer* 913) [Shuffle]_output: 3d8ccefa
InceptionV4/InceptionV4/Mixed_7a/Branch_1/Conv2d_0a_1x1/BatchNorm/batchnorm/mul:0: 3da8a38d
(Unnamed Layer* 915) [Constant]_output: 3ca1f72c
(Unnamed Layer* 916) [Shuffle]_output: 3ca1f72c
InceptionV4/InceptionV4/Mixed_7a/Branch_1/Conv2d_0a_1x1/BatchNorm/batchnorm/add_1:0: 3da3384f
InceptionV4/InceptionV4/Mixed_7a/Branch_1/Conv2d_0a_1x1/Relu:0: 3d5dca6c
InceptionV4/InceptionV4/Mixed_7a/Branch_1/Conv2d_0b_1x7/BatchNorm/batchnorm/mul__1134:0: 3d5dca6c
InceptionV4/InceptionV4/Mixed_7a/Branch_1/Conv2d_0b_1x7/BatchNorm/batchnorm/mul:0: 3d9c7d19
InceptionV4/InceptionV4/Mixed_7a/Branch_1/Conv2d_0b_1x7/BatchNorm/batchnorm/mul__1135:0: 3d9c7d19
(Unnamed Layer* 922) [Constant]_output: 3c9fcc55
(Unnamed Layer* 923) [Shuffle]_output: 3c9fcc55
InceptionV4/InceptionV4/Mixed_7a/Branch_1/Conv2d_0b_1x7/BatchNorm/batchnorm/add_1:0: 3d941bbf
InceptionV4/InceptionV4/Mixed_7a/Branch_1/Conv2d_0b_1x7/Relu:0: 3d788cb9
InceptionV4/InceptionV4/Mixed_7a/Branch_1/Conv2d_0c_7x1/BatchNorm/batchnorm/mul__1136:0: 3d788cb9
InceptionV4/InceptionV4/Mixed_7a/Branch_1/Conv2d_0c_7x1/BatchNorm/batchnorm/mul:0: 3d7db5c5
InceptionV4/InceptionV4/Mixed_7a/Branch_1/Conv2d_0c_7x1/BatchNorm/batchnorm/mul__1137:0: 3d7db5c5
(Unnamed Layer* 929) [Constant]_output: 3cc99e85
(Unnamed Layer* 930) [Shuffle]_output: 3cc99e85
InceptionV4/InceptionV4/Mixed_7a/Branch_1/Conv2d_0c_7x1/BatchNorm/batchnorm/add_1:0: 3d6c0c49
InceptionV4/InceptionV4/Mixed_7a/Branch_1/Conv2d_0c_7x1/Relu:0: 3d2b71fc
InceptionV4/InceptionV4/Mixed_7a/Branch_1/Conv2d_1a_3x3/BatchNorm/batchnorm/mul__1138:0: 3d2b71fc
InceptionV4/InceptionV4/Mixed_7a/Branch_1/Conv2d_1a_3x3/BatchNorm/batchnorm/mul:0: 3d4bd0e1
InceptionV4/InceptionV4/Mixed_7a/Branch_1/Conv2d_1a_3x3/BatchNorm/batchnorm/mul__1139:0: 3d4bd0e1
(Unnamed Layer* 936) [Constant]_output: 3c52f28a
(Unnamed Layer* 937) [Shuffle]_output: 3c52f28a
InceptionV4/InceptionV4/Mixed_7a/Branch_1/Conv2d_1a_3x3/BatchNorm/batchnorm/add_1:0: 3d1f0294
InceptionV4/InceptionV4/Mixed_7a/Branch_1/Conv2d_1a_3x3/Relu:0: 3d5682c9
InceptionV4/InceptionV4/Mixed_7a/Branch_0/Conv2d_0a_1x1/BatchNorm/batchnorm/mul__1128:0: 3d4c5830
InceptionV4/InceptionV4/Mixed_7a/Branch_0/Conv2d_0a_1x1/BatchNorm/batchnorm/mul:0: 3da7c48f
InceptionV4/InceptionV4/Mixed_7a/Branch_0/Conv2d_0a_1x1/BatchNorm/batchnorm/mul__1129:0: 3da7c48f
(Unnamed Layer* 943) [Constant]_output: 3c9dee46
(Unnamed Layer* 944) [Shuffle]_output: 3c9dee46
InceptionV4/InceptionV4/Mixed_7a/Branch_0/Conv2d_0a_1x1/BatchNorm/batchnorm/add_1:0: 3da249c9
InceptionV4/InceptionV4/Mixed_7a/Branch_0/Conv2d_0a_1x1/Relu:0: 3d5011ab
InceptionV4/InceptionV4/Mixed_7a/Branch_0/Conv2d_1a_3x3/BatchNorm/batchnorm/mul__1130:0: 3d5011ab
InceptionV4/InceptionV4/Mixed_7a/Branch_0/Conv2d_1a_3x3/BatchNorm/batchnorm/mul:0: 3d86537b
InceptionV4/InceptionV4/Mixed_7a/Branch_0/Conv2d_1a_3x3/BatchNorm/batchnorm/mul__1131:0: 3d86537b
(Unnamed Layer* 950) [Constant]_output: 3cc0ca2e
(Unnamed Layer* 951) [Shuffle]_output: 3cc0ca2e
InceptionV4/InceptionV4/Mixed_7a/Branch_0/Conv2d_1a_3x3/BatchNorm/batchnorm/add_1:0: 3d7191e4
InceptionV4/InceptionV4/Mixed_7a/Branch_0/Conv2d_1a_3x3/Relu:0: 3d5682c9
InceptionV4/InceptionV4/Mixed_7a/Branch_2/MaxPool_1a_3x3/MaxPool__1126:0: 3d4c5830
InceptionV4/InceptionV4/Mixed_7a/Branch_2/MaxPool_1a_3x3/MaxPool:0: 3d4c5830
InceptionV4/InceptionV4/Mixed_7a/Branch_2/MaxPool_1a_3x3/MaxPool__1127:0: 3d5682c9
InceptionV4/InceptionV4/Mixed_7a/concat_v2:0: 3d5682c9
InceptionV4/InceptionV4/Mixed_7b/Branch_2/Conv2d_0a_1x1/convolution__1152:0: 3d5682c9
InceptionV4/InceptionV4/Mixed_7b/Branch_2/Conv2d_0a_1x1/convolution:0: 3d0d1f18
InceptionV4/InceptionV4/Mixed_7b/Branch_2/Conv2d_0a_1x1/convolution__1153:0: 3d0d1f18
(Unnamed Layer* 961) [Constant]_output: 3ccbae38
(Unnamed Layer* 962) [Shuffle]_output: 3ccbae38
InceptionV4/InceptionV4/Mixed_7b/Branch_2/Conv2d_0a_1x1/BatchNorm/batchnorm/mul:0: 3d63bc8a
(Unnamed Layer* 964) [Constant]_output: 3c3e80b3
(Unnamed Layer* 965) [Shuffle]_output: 3c3e80b3
InceptionV4/InceptionV4/Mixed_7b/Branch_2/Conv2d_0a_1x1/BatchNorm/batchnorm/add_1:0: 3d845bda
InceptionV4/InceptionV4/Mixed_7b/Branch_2/Conv2d_0a_1x1/Relu:0: 3d36773b
InceptionV4/InceptionV4/Mixed_7b/Branch_2/Conv2d_0b_3x1/BatchNorm/batchnorm/mul__1154:0: 3d36773b
InceptionV4/InceptionV4/Mixed_7b/Branch_2/Conv2d_0b_3x1/BatchNorm/batchnorm/mul:0: 3d53a1e8
InceptionV4/InceptionV4/Mixed_7b/Branch_2/Conv2d_0b_3x1/BatchNorm/batchnorm/mul__1155:0: 3d53a1e8
(Unnamed Layer* 971) [Constant]_output: 3c2dc1af
(Unnamed Layer* 972) [Shuffle]_output: 3c2dc1af
InceptionV4/InceptionV4/Mixed_7b/Branch_2/Conv2d_0b_3x1/BatchNorm/batchnorm/add_1:0: 3d67ee2b
InceptionV4/InceptionV4/Mixed_7b/Branch_2/Conv2d_0b_3x1/Relu:0: 3d34e117
InceptionV4/InceptionV4/Mixed_7b/Branch_2/Conv2d_0c_1x3/BatchNorm/batchnorm/mul__1156:0: 3d34e117
InceptionV4/InceptionV4/Mixed_7b/Branch_2/Conv2d_0c_1x3/BatchNorm/batchnorm/mul:0: 3d5d75c2
InceptionV4/InceptionV4/Mixed_7b/Branch_2/Conv2d_0c_1x3/BatchNorm/batchnorm/mul__1157:0: 3d5d75c2
(Unnamed Layer* 978) [Constant]_output: 3cb393e1
(Unnamed Layer* 979) [Shuffle]_output: 3cb393e1
InceptionV4/InceptionV4/Mixed_7b/Branch_2/Conv2d_0c_1x3/BatchNorm/batchnorm/add_1:0: 3d4ba157
InceptionV4/InceptionV4/Mixed_7b/Branch_2/Conv2d_0c_1x3/Relu:0: 3d33109e
InceptionV4/InceptionV4/Mixed_7b/Branch_2/Conv2d_0e_3x1/convolution__1160:0: 3d33109e
InceptionV4/InceptionV4/Mixed_7b/Branch_2/Conv2d_0e_3x1/convolution:0: 3cff08ed
InceptionV4/InceptionV4/Mixed_7b/Branch_2/Conv2d_0e_3x1/convolution__1161:0: 3cff08ed
(Unnamed Layer* 985) [Constant]_output: 3ce449aa
(Unnamed Layer* 986) [Shuffle]_output: 3ce449aa
InceptionV4/InceptionV4/Mixed_7b/Branch_2/Conv2d_0e_3x1/BatchNorm/batchnorm/mul:0: 3d57093b
(Unnamed Layer* 988) [Constant]_output: 3c14a210
(Unnamed Layer* 989) [Shuffle]_output: 3c14a210
InceptionV4/InceptionV4/Mixed_7b/Branch_2/Conv2d_0e_3x1/BatchNorm/batchnorm/add_1:0: 3d516dd4
InceptionV4/InceptionV4/Mixed_7b/Branch_2/Conv2d_0e_3x1/Relu:0: 3d5196be
InceptionV4/InceptionV4/Mixed_7b/Branch_2/Conv2d_0d_1x3/BatchNorm/batchnorm/mul__1158:0: 3d33109e
InceptionV4/InceptionV4/Mixed_7b/Branch_2/Conv2d_0d_1x3/BatchNorm/batchnorm/mul:0: 3d595745
InceptionV4/InceptionV4/Mixed_7b/Branch_2/Conv2d_0d_1x3/BatchNorm/batchnorm/mul__1159:0: 3d595745
(Unnamed Layer* 995) [Constant]_output: 3c1a3ee5
(Unnamed Layer* 996) [Shuffle]_output: 3c1a3ee5
InceptionV4/InceptionV4/Mixed_7b/Branch_2/Conv2d_0d_1x3/BatchNorm/batchnorm/add_1:0: 3d65d844
InceptionV4/InceptionV4/Mixed_7b/Branch_2/Conv2d_0d_1x3/Relu:0: 3d5196be
InceptionV4/InceptionV4/Mixed_7b/Branch_2/concat_v2:0: 3d500a09
InceptionV4/InceptionV4/Mixed_7b/Branch_1/Conv2d_0a_1x1/convolution__1146:0: 3d5682c9
InceptionV4/InceptionV4/Mixed_7b/Branch_1/Conv2d_0a_1x1/convolution:0: 3d093a85
InceptionV4/InceptionV4/Mixed_7b/Branch_1/Conv2d_0a_1x1/convolution__1147:0: 3d093a85
(Unnamed Layer* 1003) [Constant]_output: 3cb0480f
(Unnamed Layer* 1004) [Shuffle]_output: 3cb0480f
InceptionV4/InceptionV4/Mixed_7b/Branch_1/Conv2d_0a_1x1/BatchNorm/batchnorm/mul:0: 3d91fdc6
(Unnamed Layer* 1006) [Constant]_output: 3bff76a8
(Unnamed Layer* 1007) [Shuffle]_output: 3bff76a8
InceptionV4/InceptionV4/Mixed_7b/Branch_1/Conv2d_0a_1x1/BatchNorm/batchnorm/add_1:0: 3d6c3441
InceptionV4/InceptionV4/Mixed_7b/Branch_1/Conv2d_0a_1x1/Relu:0: 3d52a03c
InceptionV4/InceptionV4/Mixed_7b/Branch_1/Conv2d_0c_3x1/convolution__1150:0: 3d52a03c
InceptionV4/InceptionV4/Mixed_7b/Branch_1/Conv2d_0c_3x1/convolution:0: 3c74f702
InceptionV4/InceptionV4/Mixed_7b/Branch_1/Conv2d_0c_3x1/convolution__1151:0: 3c74f702
(Unnamed Layer* 1013) [Constant]_output: 3ce551e0
(Unnamed Layer* 1014) [Shuffle]_output: 3ce551e0
InceptionV4/InceptionV4/Mixed_7b/Branch_1/Conv2d_0c_3x1/BatchNorm/batchnorm/mul:0: 3d6dadbb
(Unnamed Layer* 1016) [Constant]_output: 3bb2b1f8
(Unnamed Layer* 1017) [Shuffle]_output: 3bb2b1f8
InceptionV4/InceptionV4/Mixed_7b/Branch_1/Conv2d_0c_3x1/BatchNorm/batchnorm/add_1:0: 3d7aa601
InceptionV4/InceptionV4/Mixed_7b/Branch_1/Conv2d_0c_3x1/Relu:0: 3d62e3ae
InceptionV4/InceptionV4/Mixed_7b/Branch_1/Conv2d_0b_1x3/BatchNorm/batchnorm/mul__1148:0: 3d52a03c
InceptionV4/InceptionV4/Mixed_7b/Branch_1/Conv2d_0b_1x3/BatchNorm/batchnorm/mul:0: 3da4d9d9
InceptionV4/InceptionV4/Mixed_7b/Branch_1/Conv2d_0b_1x3/BatchNorm/batchnorm/mul__1149:0: 3da4d9d9
(Unnamed Layer* 1023) [Constant]_output: 3bd1093d
(Unnamed Layer* 1024) [Shuffle]_output: 3bd1093d
InceptionV4/InceptionV4/Mixed_7b/Branch_1/Conv2d_0b_1x3/BatchNorm/batchnorm/add_1:0: 3d825747
InceptionV4/InceptionV4/Mixed_7b/Branch_1/Conv2d_0b_1x3/Relu:0: 3d62e3ae
InceptionV4/InceptionV4/Mixed_7b/Branch_1/concat_v2:0: 3d500a09
InceptionV4/InceptionV4/Mixed_7b/Branch_0/Conv2d_0a_1x1/BatchNorm/batchnorm/mul__1144:0: 3d5682c9
InceptionV4/InceptionV4/Mixed_7b/Branch_0/Conv2d_0a_1x1/BatchNorm/batchnorm/mul:0: 3d61fd0b
InceptionV4/InceptionV4/Mixed_7b/Branch_0/Conv2d_0a_1x1/BatchNorm/batchnorm/mul__1145:0: 3d61fd0b
(Unnamed Layer* 1031) [Constant]_output: 3bf64d2a
(Unnamed Layer* 1032) [Shuffle]_output: 3bf64d2a
InceptionV4/InceptionV4/Mixed_7b/Branch_0/Conv2d_0a_1x1/BatchNorm/batchnorm/add_1:0: 3d6e80f0
InceptionV4/InceptionV4/Mixed_7b/Branch_0/Conv2d_0a_1x1/Relu:0: 3d500a09
InceptionV4/InceptionV4/Mixed_7b/Branch_3/AvgPool_0a_3x3/AvgPool__1140:0: 3d5682c9
InceptionV4/InceptionV4/Mixed_7b/Branch_3/AvgPool_0a_3x3/AvgPool:0: 3d5682c9
InceptionV4/InceptionV4/Mixed_7b/Branch_3/Conv2d_0b_1x1/BatchNorm/batchnorm/mul:0: 3d0277cb
InceptionV4/InceptionV4/Mixed_7b/Branch_3/Conv2d_0b_1x1/BatchNorm/batchnorm/mul__1143:0: 3d0277cb
(Unnamed Layer* 1040) [Constant]_output: 3c05dd60
(Unnamed Layer* 1041) [Shuffle]_output: 3c05dd60
InceptionV4/InceptionV4/Mixed_7b/Branch_3/Conv2d_0b_1x1/BatchNorm/batchnorm/add_1:0: 3d0a4b5e
InceptionV4/InceptionV4/Mixed_7b/Branch_3/Conv2d_0b_1x1/Relu:0: 3d500a09
InceptionV4/InceptionV4/Mixed_7b/concat_v2:0: 3d500a09
InceptionV4/InceptionV4/Mixed_7c/Branch_2/Conv2d_0a_1x1/convolution__1174:0: 3d500a09
InceptionV4/InceptionV4/Mixed_7c/Branch_2/Conv2d_0a_1x1/convolution:0: 3d057e92
InceptionV4/InceptionV4/Mixed_7c/Branch_2/Conv2d_0a_1x1/convolution__1175:0: 3d057e92
(Unnamed Layer* 1048) [Constant]_output: 3cec9cd6
(Unnamed Layer* 1049) [Shuffle]_output: 3cec9cd6
InceptionV4/InceptionV4/Mixed_7c/Branch_2/Conv2d_0a_1x1/BatchNorm/batchnorm/mul:0: 3d4d2c58
(Unnamed Layer* 1051) [Constant]_output: 3c1589bb
(Unnamed Layer* 1052) [Shuffle]_output: 3c1589bb
InceptionV4/InceptionV4/Mixed_7c/Branch_2/Conv2d_0a_1x1/BatchNorm/batchnorm/add_1:0: 3d4b3862
InceptionV4/InceptionV4/Mixed_7c/Branch_2/Conv2d_0a_1x1/Relu:0: 3d2f4de5
InceptionV4/InceptionV4/Mixed_7c/Branch_2/Conv2d_0b_3x1/BatchNorm/batchnorm/mul__1176:0: 3d2f4de5
InceptionV4/InceptionV4/Mixed_7c/Branch_2/Conv2d_0b_3x1/BatchNorm/batchnorm/mul:0: 3da3b103
InceptionV4/InceptionV4/Mixed_7c/Branch_2/Conv2d_0b_3x1/BatchNorm/batchnorm/mul__1177:0: 3da3b103
(Unnamed Layer* 1058) [Constant]_output: 3c3d9cf2
(Unnamed Layer* 1059) [Shuffle]_output: 3c3d9cf2
InceptionV4/InceptionV4/Mixed_7c/Branch_2/Conv2d_0b_3x1/BatchNorm/batchnorm/add_1:0: 3d9d2246
InceptionV4/InceptionV4/Mixed_7c/Branch_2/Conv2d_0b_3x1/Relu:0: 3d1eeb64
InceptionV4/InceptionV4/Mixed_7c/Branch_2/Conv2d_0c_1x3/BatchNorm/batchnorm/mul__1178:0: 3d1eeb64
InceptionV4/InceptionV4/Mixed_7c/Branch_2/Conv2d_0c_1x3/BatchNorm/batchnorm/mul:0: 3dbba31c
InceptionV4/InceptionV4/Mixed_7c/Branch_2/Conv2d_0c_1x3/BatchNorm/batchnorm/mul__1179:0: 3dbba31c
(Unnamed Layer* 1065) [Constant]_output: 3c877072
(Unnamed Layer* 1066) [Shuffle]_output: 3c877072
InceptionV4/InceptionV4/Mixed_7c/Branch_2/Conv2d_0c_1x3/BatchNorm/batchnorm/add_1:0: 3da8d010
InceptionV4/InceptionV4/Mixed_7c/Branch_2/Conv2d_0c_1x3/Relu:0: 3d604d5a
InceptionV4/InceptionV4/Mixed_7c/Branch_2/Conv2d_0e_3x1/convolution__1182:0: 3d604d5a
InceptionV4/InceptionV4/Mixed_7c/Branch_2/Conv2d_0e_3x1/convolution:0: 3d746121
InceptionV4/InceptionV4/Mixed_7c/Branch_2/Conv2d_0e_3x1/convolution__1183:0: 3d746121
(Unnamed Layer* 1072) [Constant]_output: 3ca42329
(Unnamed Layer* 1073) [Shuffle]_output: 3ca42329
InceptionV4/InceptionV4/Mixed_7c/Branch_2/Conv2d_0e_3x1/BatchNorm/batchnorm/mul:0: 3d90fd0d
(Unnamed Layer* 1075) [Constant]_output: 3c20a513
(Unnamed Layer* 1076) [Shuffle]_output: 3c20a513
InceptionV4/InceptionV4/Mixed_7c/Branch_2/Conv2d_0e_3x1/BatchNorm/batchnorm/add_1:0: 3d8e955b
InceptionV4/InceptionV4/Mixed_7c/Branch_2/Conv2d_0e_3x1/Relu:0: 3cd1d446
InceptionV4/InceptionV4/Mixed_7c/Branch_2/Conv2d_0d_1x3/BatchNorm/batchnorm/mul__1180:0: 3d604d5a
InceptionV4/InceptionV4/Mixed_7c/Branch_2/Conv2d_0d_1x3/BatchNorm/batchnorm/mul:0: 3d8672fd
InceptionV4/InceptionV4/Mixed_7c/Branch_2/Conv2d_0d_1x3/BatchNorm/batchnorm/mul__1181:0: 3d8672fd
(Unnamed Layer* 1082) [Constant]_output: 3c3defd8
(Unnamed Layer* 1083) [Shuffle]_output: 3c3defd8
InceptionV4/InceptionV4/Mixed_7c/Branch_2/Conv2d_0d_1x3/BatchNorm/batchnorm/add_1:0: 3d61fe5f
InceptionV4/InceptionV4/Mixed_7c/Branch_2/Conv2d_0d_1x3/Relu:0: 3cd1d446
InceptionV4/InceptionV4/Mixed_7c/Branch_2/concat_v2:0: 3d14e668
InceptionV4/InceptionV4/Mixed_7c/Branch_1/Conv2d_0a_1x1/convolution__1168:0: 3d500a09
InceptionV4/InceptionV4/Mixed_7c/Branch_1/Conv2d_0a_1x1/convolution:0: 3d130c82
InceptionV4/InceptionV4/Mixed_7c/Branch_1/Conv2d_0a_1x1/convolution__1169:0: 3d130c82
(Unnamed Layer* 1090) [Constant]_output: 3cd5a58a
(Unnamed Layer* 1091) [Shuffle]_output: 3cd5a58a
InceptionV4/InceptionV4/Mixed_7c/Branch_1/Conv2d_0a_1x1/BatchNorm/batchnorm/mul:0: 3d52b778
(Unnamed Layer* 1093) [Constant]_output: 3bfd306f
(Unnamed Layer* 1094) [Shuffle]_output: 3bfd306f
InceptionV4/InceptionV4/Mixed_7c/Branch_1/Conv2d_0a_1x1/BatchNorm/batchnorm/add_1:0: 3d6263e3
InceptionV4/InceptionV4/Mixed_7c/Branch_1/Conv2d_0a_1x1/Relu:0: 3d04b483
InceptionV4/InceptionV4/Mixed_7c/Branch_1/Conv2d_0c_3x1/convolution__1172:0: 3d04b483
InceptionV4/InceptionV4/Mixed_7c/Branch_1/Conv2d_0c_3x1/convolution:0: 3cb51f87
InceptionV4/InceptionV4/Mixed_7c/Branch_1/Conv2d_0c_3x1/convolution__1173:0: 3cb51f87
(Unnamed Layer* 1100) [Constant]_output: 3cff7ef0
(Unnamed Layer* 1101) [Shuffle]_output: 3cff7ef0
InceptionV4/InceptionV4/Mixed_7c/Branch_1/Conv2d_0c_3x1/BatchNorm/batchnorm/mul:0: 3d42dcc6
(Unnamed Layer* 1103) [Constant]_output: 3b99ce33
(Unnamed Layer* 1104) [Shuffle]_output: 3b99ce33
InceptionV4/InceptionV4/Mixed_7c/Branch_1/Conv2d_0c_3x1/BatchNorm/batchnorm/add_1:0: 3d479fa0
InceptionV4/InceptionV4/Mixed_7c/Branch_1/Conv2d_0c_3x1/Relu:0: 3d2bfa86
InceptionV4/InceptionV4/Mixed_7c/Branch_1/Conv2d_0b_1x3/BatchNorm/batchnorm/mul__1170:0: 3d04b483
InceptionV4/InceptionV4/Mixed_7c/Branch_1/Conv2d_0b_1x3/BatchNorm/batchnorm/mul:0: 3d5d37a8
InceptionV4/InceptionV4/Mixed_7c/Branch_1/Conv2d_0b_1x3/BatchNorm/batchnorm/mul__1171:0: 3d5d37a8
(Unnamed Layer* 1110) [Constant]_output: 3bbd9689
(Unnamed Layer* 1111) [Shuffle]_output: 3bbd9689
InceptionV4/InceptionV4/Mixed_7c/Branch_1/Conv2d_0b_1x3/BatchNorm/batchnorm/add_1:0: 3d828ecb
InceptionV4/InceptionV4/Mixed_7c/Branch_1/Conv2d_0b_1x3/Relu:0: 3d2bfa86
InceptionV4/InceptionV4/Mixed_7c/Branch_1/concat_v2:0: 3d14e668
InceptionV4/InceptionV4/Mixed_7c/Branch_0/Conv2d_0a_1x1/BatchNorm/batchnorm/mul__1166:0: 3d500a09
InceptionV4/InceptionV4/Mixed_7c/Branch_0/Conv2d_0a_1x1/BatchNorm/batchnorm/mul:0: 3d5f5ecb
InceptionV4/InceptionV4/Mixed_7c/Branch_0/Conv2d_0a_1x1/BatchNorm/batchnorm/mul__1167:0: 3d5f5ecb
(Unnamed Layer* 1118) [Constant]_output: 3c1131de
(Unnamed Layer* 1119) [Shuffle]_output: 3c1131de
InceptionV4/InceptionV4/Mixed_7c/Branch_0/Conv2d_0a_1x1/BatchNorm/batchnorm/add_1:0: 3d46bf60
InceptionV4/InceptionV4/Mixed_7c/Branch_0/Conv2d_0a_1x1/Relu:0: 3d14e668
InceptionV4/InceptionV4/Mixed_7c/Branch_3/AvgPool_0a_3x3/AvgPool__1162:0: 3d500a09
InceptionV4/InceptionV4/Mixed_7c/Branch_3/AvgPool_0a_3x3/AvgPool:0: 3d500a09
InceptionV4/InceptionV4/Mixed_7c/Branch_3/Conv2d_0b_1x1/BatchNorm/batchnorm/mul:0: 3d08c84a
InceptionV4/InceptionV4/Mixed_7c/Branch_3/Conv2d_0b_1x1/BatchNorm/batchnorm/mul__1165:0: 3d08c84a
(Unnamed Layer* 1127) [Constant]_output: 3c34d6c1
(Unnamed Layer* 1128) [Shuffle]_output: 3c34d6c1
InceptionV4/InceptionV4/Mixed_7c/Branch_3/Conv2d_0b_1x1/BatchNorm/batchnorm/add_1:0: 3cfa4837
InceptionV4/InceptionV4/Mixed_7c/Branch_3/Conv2d_0b_1x1/Relu:0: 3d14e668
InceptionV4/InceptionV4/Mixed_7c/concat_v2:0: 3d14e668
InceptionV4/InceptionV4/Mixed_7d/Branch_2/Conv2d_0a_1x1/convolution__1196:0: 3d14e668
InceptionV4/InceptionV4/Mixed_7d/Branch_2/Conv2d_0a_1x1/convolution:0: 3cb80fde
InceptionV4/InceptionV4/Mixed_7d/Branch_2/Conv2d_0a_1x1/convolution__1197:0: 3cb80fde
(Unnamed Layer* 1135) [Constant]_output: 3d23c30b
(Unnamed Layer* 1136) [Shuffle]_output: 3d23c30b
InceptionV4/InceptionV4/Mixed_7d/Branch_2/Conv2d_0a_1x1/BatchNorm/batchnorm/mul:0: 3d66d115
(Unnamed Layer* 1138) [Constant]_output: 3c4abb71
(Unnamed Layer* 1139) [Shuffle]_output: 3c4abb71
InceptionV4/InceptionV4/Mixed_7d/Branch_2/Conv2d_0a_1x1/BatchNorm/batchnorm/add_1:0: 3d48ef3f
InceptionV4/InceptionV4/Mixed_7d/Branch_2/Conv2d_0a_1x1/Relu:0: 3d2a5b41
InceptionV4/InceptionV4/Mixed_7d/Branch_2/Conv2d_0b_3x1/BatchNorm/batchnorm/mul__1198:0: 3d2a5b41
InceptionV4/InceptionV4/Mixed_7d/Branch_2/Conv2d_0b_3x1/BatchNorm/batchnorm/mul:0: 3d5830c1
InceptionV4/InceptionV4/Mixed_7d/Branch_2/Conv2d_0b_3x1/BatchNorm/batchnorm/mul__1199:0: 3d5830c1
(Unnamed Layer* 1145) [Constant]_output: 3c491a65
(Unnamed Layer* 1146) [Shuffle]_output: 3c491a65
InceptionV4/InceptionV4/Mixed_7d/Branch_2/Conv2d_0b_3x1/BatchNorm/batchnorm/add_1:0: 3d3d7bd3
InceptionV4/InceptionV4/Mixed_7d/Branch_2/Conv2d_0b_3x1/Relu:0: 3d2c5d33
InceptionV4/InceptionV4/Mixed_7d/Branch_2/Conv2d_0c_1x3/BatchNorm/batchnorm/mul__1200:0: 3d2c5d33
InceptionV4/InceptionV4/Mixed_7d/Branch_2/Conv2d_0c_1x3/BatchNorm/batchnorm/mul:0: 3d8b6bc4
InceptionV4/InceptionV4/Mixed_7d/Branch_2/Conv2d_0c_1x3/BatchNorm/batchnorm/mul__1201:0: 3d8b6bc4
(Unnamed Layer* 1152) [Constant]_output: 3c0f2943
(Unnamed Layer* 1153) [Shuffle]_output: 3c0f2943
InceptionV4/InceptionV4/Mixed_7d/Branch_2/Conv2d_0c_1x3/BatchNorm/batchnorm/add_1:0: 3d97aca6
InceptionV4/InceptionV4/Mixed_7d/Branch_2/Conv2d_0c_1x3/Relu:0: 3d583ba5
InceptionV4/InceptionV4/Mixed_7d/Branch_2/Conv2d_0e_3x1/convolution__1204:0: 3d583ba5
InceptionV4/InceptionV4/Mixed_7d/Branch_2/Conv2d_0e_3x1/convolution:0: 3c49c1a9
InceptionV4/InceptionV4/Mixed_7d/Branch_2/Conv2d_0e_3x1/convolution__1205:0: 3c49c1a9
(Unnamed Layer* 1159) [Constant]_output: 3d33fbdb
(Unnamed Layer* 1160) [Shuffle]_output: 3d33fbdb
InceptionV4/InceptionV4/Mixed_7d/Branch_2/Conv2d_0e_3x1/BatchNorm/batchnorm/mul:0: 3d7c74aa
(Unnamed Layer* 1162) [Constant]_output: 3b01a5ab
(Unnamed Layer* 1163) [Shuffle]_output: 3b01a5ab
InceptionV4/InceptionV4/Mixed_7d/Branch_2/Conv2d_0e_3x1/BatchNorm/batchnorm/add_1:0: 3d7a720b
InceptionV4/InceptionV4/Mixed_7d/Branch_2/Conv2d_0e_3x1/Relu:0: 3d95f36d
InceptionV4/InceptionV4/Mixed_7d/Branch_2/Conv2d_0d_1x3/BatchNorm/batchnorm/mul__1202:0: 3d583ba5
InceptionV4/InceptionV4/Mixed_7d/Branch_2/Conv2d_0d_1x3/BatchNorm/batchnorm/mul:0: 3d81e4a5
InceptionV4/InceptionV4/Mixed_7d/Branch_2/Conv2d_0d_1x3/BatchNorm/batchnorm/mul__1203:0: 3d81e4a5
(Unnamed Layer* 1169) [Constant]_output: 3b0d7399
(Unnamed Layer* 1170) [Shuffle]_output: 3b0d7399
InceptionV4/InceptionV4/Mixed_7d/Branch_2/Conv2d_0d_1x3/BatchNorm/batchnorm/add_1:0: 3d95f36d
InceptionV4/InceptionV4/Mixed_7d/Branch_2/Conv2d_0d_1x3/Relu:0: 3d95f36d
InceptionV4/InceptionV4/Mixed_7d/Branch_2/concat_v2:0: 3db34f3c
InceptionV4/InceptionV4/Mixed_7d/Branch_1/Conv2d_0a_1x1/convolution__1190:0: 3d14e668
InceptionV4/InceptionV4/Mixed_7d/Branch_1/Conv2d_0a_1x1/convolution:0: 3c800ed9
InceptionV4/InceptionV4/Mixed_7d/Branch_1/Conv2d_0a_1x1/convolution__1191:0: 3c800ed9
(Unnamed Layer* 1177) [Constant]_output: 3d58dbb7
(Unnamed Layer* 1178) [Shuffle]_output: 3d58dbb7
InceptionV4/InceptionV4/Mixed_7d/Branch_1/Conv2d_0a_1x1/BatchNorm/batchnorm/mul:0: 3d5d8cc2
(Unnamed Layer* 1180) [Constant]_output: 3c378067
(Unnamed Layer* 1181) [Shuffle]_output: 3c378067
InceptionV4/InceptionV4/Mixed_7d/Branch_1/Conv2d_0a_1x1/BatchNorm/batchnorm/add_1:0: 3d731d5a
InceptionV4/InceptionV4/Mixed_7d/Branch_1/Conv2d_0a_1x1/Relu:0: 3d3656e6
InceptionV4/InceptionV4/Mixed_7d/Branch_1/Conv2d_0c_3x1/convolution__1194:0: 3d3656e6
InceptionV4/InceptionV4/Mixed_7d/Branch_1/Conv2d_0c_3x1/convolution:0: 3c137283
InceptionV4/InceptionV4/Mixed_7d/Branch_1/Conv2d_0c_3x1/convolution__1195:0: 3c137283
(Unnamed Layer* 1187) [Constant]_output: 3d8e6259
(Unnamed Layer* 1188) [Shuffle]_output: 3d8e6259
InceptionV4/InceptionV4/Mixed_7d/Branch_1/Conv2d_0c_3x1/BatchNorm/batchnorm/mul:0: 3d956038
(Unnamed Layer* 1190) [Constant]_output: 3b24d92d
(Unnamed Layer* 1191) [Shuffle]_output: 3b24d92d
InceptionV4/InceptionV4/Mixed_7d/Branch_1/Conv2d_0c_3x1/BatchNorm/batchnorm/add_1:0: 3d99e601
InceptionV4/InceptionV4/Mixed_7d/Branch_1/Conv2d_0c_3x1/Relu:0: 3dc04f44
InceptionV4/InceptionV4/Mixed_7d/Branch_1/Conv2d_0b_1x3/BatchNorm/batchnorm/mul__1192:0: 3d3656e6
InceptionV4/InceptionV4/Mixed_7d/Branch_1/Conv2d_0b_1x3/BatchNorm/batchnorm/mul:0: 3d8fd544
InceptionV4/InceptionV4/Mixed_7d/Branch_1/Conv2d_0b_1x3/BatchNorm/batchnorm/mul__1193:0: 3d8fd544
(Unnamed Layer* 1197) [Constant]_output: 3b386043
(Unnamed Layer* 1198) [Shuffle]_output: 3b386043
InceptionV4/InceptionV4/Mixed_7d/Branch_1/Conv2d_0b_1x3/BatchNorm/batchnorm/add_1:0: 3d950466
InceptionV4/InceptionV4/Mixed_7d/Branch_1/Conv2d_0b_1x3/Relu:0: 3dc04f44
InceptionV4/InceptionV4/Mixed_7d/Branch_1/concat_v2:0: 3db34f3c
InceptionV4/InceptionV4/Mixed_7d/Branch_0/Conv2d_0a_1x1/BatchNorm/batchnorm/mul__1188:0: 3d14e668
InceptionV4/InceptionV4/Mixed_7d/Branch_0/Conv2d_0a_1x1/BatchNorm/batchnorm/mul:0: 3d826c1f
InceptionV4/InceptionV4/Mixed_7d/Branch_0/Conv2d_0a_1x1/BatchNorm/batchnorm/mul__1189:0: 3d826c1f
(Unnamed Layer* 1205) [Constant]_output: 3be4d4cf
(Unnamed Layer* 1206) [Shuffle]_output: 3be4d4cf
InceptionV4/InceptionV4/Mixed_7d/Branch_0/Conv2d_0a_1x1/BatchNorm/batchnorm/add_1:0: 3d788602
InceptionV4/InceptionV4/Mixed_7d/Branch_0/Conv2d_0a_1x1/Relu:0: 3db34f3c
InceptionV4/InceptionV4/Mixed_7d/Branch_3/AvgPool_0a_3x3/AvgPool__1184:0: 3d14e668
InceptionV4/InceptionV4/Mixed_7d/Branch_3/AvgPool_0a_3x3/AvgPool:0: 3d14e668
InceptionV4/InceptionV4/Mixed_7d/Branch_3/Conv2d_0b_1x1/BatchNorm/batchnorm/mul:0: 3d5c0ab6
InceptionV4/InceptionV4/Mixed_7d/Branch_3/Conv2d_0b_1x1/BatchNorm/batchnorm/mul__1187:0: 3d5c0ab6
(Unnamed Layer* 1214) [Constant]_output: 3c1319c4
(Unnamed Layer* 1215) [Shuffle]_output: 3c1319c4
InceptionV4/InceptionV4/Mixed_7d/Branch_3/Conv2d_0b_1x1/BatchNorm/batchnorm/add_1:0: 3d3bb3a7
InceptionV4/InceptionV4/Mixed_7d/Branch_3/Conv2d_0b_1x1/Relu:0: 3db34f3c
InceptionV4/InceptionV4/Mixed_7d/concat_v2:0: 3db34f3c
InceptionV4/Logits/AvgPool_1a/AvgPool__1206:0: 3db34f3c
InceptionV4/Logits/AvgPool_1a/AvgPool:0: 3db34f3c
InceptionV4/Logits/AvgPool_1a/AvgPool__1207:0: 3c9ed171
InceptionV4/Logits/Dropout_1b/Identity:0: 3c9ed171
InceptionV4/Logits/PreLogitsFlatten/Reshape:0: 3c9ed171
(Unnamed Layer* 1225) [Shuffle]_output: 3c9ed171
(Unnamed Layer* 1226) [Fully Connected]_output: 3d9b4ac1
InceptionV4/Logits/Logits/MatMul:0: 3d9b4ac1
(Unnamed Layer* 1228) [Constant]_output: 3a477d31
(Unnamed Layer* 1229) [Shuffle]_output: 3a477d31
InceptionV4/Logits/Logits/BiasAdd:0: 3da30aa6
InceptionV4/Logits/Predictions:0: 3b1fecdc
