TRT-7202-EntropyCalibration2
data: 4000890a
(Unnamed Layer* 0) [Constant]_output: 3f795bc8
_defaultpreprocess0_broadcast_minus0: 3f98b330
(Unnamed Layer* 2) [Constant]_output: 3eeb7a08
_defaultpreprocess0_broadcast_div0: 3caa54fc
_defaultpreprocess0_transpose0: 3caa54fc
resnetv10_conv0_fwd: 3e24fd62
resnetv10_batchnorm0_fwd: 3c9d36c2
resnetv10_relu0_fwd: 3c9ab9b9
resnetv10_pool0_fwd: 3c9ab9b9
resnetv10_stage1_conv0_fwd: 3da29cdd
resnetv10_stage1_batchnorm0_fwd: 3d2f5522
resnetv10_stage1_relu0_fwd: 3c780ce0
resnetv10_stage1_conv1_fwd: 3d03351c
resnetv10_stage1_batchnorm1_fwd: 3d360f2b
resnetv10_stage1__plus0: 3d32a70c
resnetv10_stage1_activation0: 3d0711ff
resnetv10_stage1_conv2_fwd: 3d95928d
resnetv10_stage1_batchnorm2_fwd: 3cc546ef
resnetv10_stage1_relu1_fwd: 3c805c01
resnetv10_stage1_conv3_fwd: 3c4ea1eb
resnetv10_stage1_batchnorm3_fwd: 3d01eac5
resnetv10_stage1__plus1: 3d2321fc
resnetv10_stage1_activation1: 3d2321fc
resnetv10_stage2_conv2_fwd: 3cd4d282
resnetv10_stage2_batchnorm2_fwd: 3c45ddb2
resnetv10_stage2_conv0_fwd: 3d4a5bf7
resnetv10_stage2_batchnorm0_fwd: 3c9dd4fb
resnetv10_stage2_relu0_fwd: 3c8af4f5
resnetv10_stage2_conv1_fwd: 3cbad76b
resnetv10_stage2_batchnorm1_fwd: 3cc0bd6a
resnetv10_stage2__plus0: 3cdf7f11
resnetv10_stage2_activation0: 3ceee8ef
resnetv10_stage2_conv3_fwd: 3d1b36b2
resnetv10_stage2_batchnorm3_fwd: 3cac29da
resnetv10_stage2_relu1_fwd: 3c8fcda3
resnetv10_stage2_conv4_fwd: 3c82d7b0
resnetv10_stage2_batchnorm4_fwd: 3ce13d7c
resnetv10_stage2__plus1: 3cf20108
resnetv10_stage2_activation1: 3cf20108
resnetv10_stage3_conv2_fwd: 3c0b2da8
resnetv10_stage3_batchnorm2_fwd: 3c0e64ce
resnetv10_stage3_conv0_fwd: 3d13cedb
resnetv10_stage3_batchnorm0_fwd: 3cb122df
resnetv10_stage3_relu0_fwd: 3c963e7a
resnetv10_stage3_conv1_fwd: 3cbcd682
resnetv10_stage3_batchnorm1_fwd: 3cb7b27b
resnetv10_stage3__plus0: 3cc6e6a6
resnetv10_stage3_activation0: 3cc606a4
resnetv10_stage3_conv3_fwd: 3ccb356f
resnetv10_stage3_batchnorm3_fwd: 3cb9e396
resnetv10_stage3_relu1_fwd: 3c4ca762
resnetv10_stage3_conv4_fwd: 3c4eeeaf
resnetv10_stage3_batchnorm4_fwd: 3ccae8a7
resnetv10_stage3__plus1: 3cd82594
resnetv10_stage3_activation1: 3ccb0483
resnetv10_stage4_conv2_fwd: 3c2253cc
resnetv10_stage4_batchnorm2_fwd: 3c36db62
resnetv10_stage4_conv0_fwd: 3cb39ee1
resnetv10_stage4_batchnorm0_fwd: 3c8ae36b
resnetv10_stage4_relu0_fwd: 3c57d541
resnetv10_stage4_conv1_fwd: 3c5a9b82
resnetv10_stage4_batchnorm1_fwd: 3ccf50e5
resnetv10_stage4__plus0: 3cfd98fb
resnetv10_stage4_activation0: 3cf0475d
resnetv10_stage4_conv3_fwd: 3d0106d7
resnetv10_stage4_batchnorm3_fwd: 3ca6611f
resnetv10_stage4_relu1_fwd: 3c43f0ec
resnetv10_stage4_conv4_fwd: 3c1c17ee
resnetv10_stage4_batchnorm4_fwd: 3e2ff0d7
resnetv10_stage4__plus1: 3e2f109d
resnetv10_stage4_activation1: 3e57cae0
resnetv10_pool1_fwd: 3d7de5a7
flatten_175: 3d7de5a7
(Unnamed Layer* 73) [Shuffle]_output: 3d7de5a7
(Unnamed Layer* 74) [Fully Connected]_output: 3e511f7b
resnetv10_dense0_fwd: 3e511f7b
