TRT-7202-EntropyCalibration2
gpu_0/data_0: 3caa54fc
gpu_0/conv1_1: 3dd4ac8d
gpu_0/res_conv1_bn_1: 3dc53f8b
gpu_0/res_conv1_bn_2: 3dc53f8b
gpu_0/pool1_1: 3dc53f8b
gpu_0/res2_0_branch2a_1: 3e2dc7ce
gpu_0/res2_0_branch2a_bn_1: 3dc92aa9
gpu_0/res2_0_branch2a_bn_2: 3d940112
gpu_0/res2_0_branch2b_1: 3df65a5a
gpu_0/res2_0_branch2b_bn_1: 3da28df1
gpu_0/res2_0_branch2b_bn_2: 3d8f8b70
gpu_0/res2_0_branch2c_1: 3d298d76
gpu_0/res2_0_branch2c_bn_1: 3d3eefb5
gpu_0/res2_0_branch1_1: 3dad9e13
gpu_0/res2_0_branch1_bn_1: 3dcebf06
gpu_0/res2_0_branch2c_bn_2: 3dde107c
gpu_0/res2_0_branch2c_bn_3: 3d923bd7
gpu_0/res2_1_branch2a_1: 3d66fa48
gpu_0/res2_1_branch2a_bn_1: 3da7e22d
gpu_0/res2_1_branch2a_bn_2: 3d5ce3a9
gpu_0/res2_1_branch2b_1: 3d821468
gpu_0/res2_1_branch2b_bn_1: 3dc0862a
gpu_0/res2_1_branch2b_bn_2: 3db2d3a3
gpu_0/res2_1_branch2c_1: 3cbd1898
gpu_0/res2_1_branch2c_bn_1: 3d3fa725
gpu_0/res2_1_branch2c_bn_2: 3d46a55e
gpu_0/res2_1_branch2c_bn_3: 3d46a55e
gpu_0/res2_2_branch2a_1: 3d558d8e
gpu_0/res2_2_branch2a_bn_1: 3d8aa381
gpu_0/res2_2_branch2a_bn_2: 3d6d4f98
gpu_0/res2_2_branch2b_1: 3d70e950
gpu_0/res2_2_branch2b_bn_1: 3db9ac1a
gpu_0/res2_2_branch2b_bn_2: 3d7c5568
gpu_0/res2_2_branch2c_1: 3c98d356
gpu_0/res2_2_branch2c_bn_1: 3d31b555
gpu_0/res2_2_branch2c_bn_2: 3d7f6af4
gpu_0/res2_2_branch2c_bn_3: 3d54e037
gpu_0/res3_0_branch2a_1: 3da0e9af
gpu_0/res3_0_branch2a_bn_1: 3dab5006
gpu_0/res3_0_branch2a_bn_2: 3d839ba8
gpu_0/res3_0_branch2b_1: 3d8940ff
gpu_0/res3_0_branch2b_bn_1: 3d9b4262
gpu_0/res3_0_branch2b_bn_2: 3d9bc0e3
gpu_0/res3_0_branch2c_1: 3cc51256
gpu_0/res3_0_branch2c_bn_1: 3d58c8a4
gpu_0/res3_0_branch1_1: 3d4941a2
gpu_0/res3_0_branch1_bn_1: 3d90df1f
gpu_0/res3_0_branch2c_bn_2: 3db50648
gpu_0/res3_0_branch2c_bn_3: 3da4daf8
gpu_0/res3_1_branch2a_1: 3d974d08
gpu_0/res3_1_branch2a_bn_1: 3d7497f0
gpu_0/res3_1_branch2a_bn_2: 3d3e5682
gpu_0/res3_1_branch2b_1: 3da4445f
gpu_0/res3_1_branch2b_bn_1: 3dae397f
gpu_0/res3_1_branch2b_bn_2: 3d919ca5
gpu_0/res3_1_branch2c_1: 3cd87c26
gpu_0/res3_1_branch2c_bn_1: 3d60d90e
gpu_0/res3_1_branch2c_bn_2: 3d94bc7c
gpu_0/res3_1_branch2c_bn_3: 3d888dd9
gpu_0/res3_2_branch2a_1: 3d5cf7d2
gpu_0/res3_2_branch2a_bn_1: 3d74b36d
gpu_0/res3_2_branch2a_bn_2: 3d74b36d
gpu_0/res3_2_branch2b_1: 3dd188be
gpu_0/res3_2_branch2b_bn_1: 3daab15b
gpu_0/res3_2_branch2b_bn_2: 3d88bd94
gpu_0/res3_2_branch2c_1: 3c95d645
gpu_0/res3_2_branch2c_bn_1: 3d261f46
gpu_0/res3_2_branch2c_bn_2: 3d53c1e1
gpu_0/res3_2_branch2c_bn_3: 3d53c1e1
gpu_0/res3_3_branch2a_1: 3d5de535
gpu_0/res3_3_branch2a_bn_1: 3d8f6efe
gpu_0/res3_3_branch2a_bn_2: 3d908c0c
gpu_0/res3_3_branch2b_1: 3d56cfd4
gpu_0/res3_3_branch2b_bn_1: 3daaa9e0
gpu_0/res3_3_branch2b_bn_2: 3d971dad
gpu_0/res3_3_branch2c_1: 3c73ab6d
gpu_0/res3_3_branch2c_bn_1: 3d100c4a
gpu_0/res3_3_branch2c_bn_2: 3d519ce1
gpu_0/res3_3_branch2c_bn_3: 3d519ce1
gpu_0/res4_0_branch2a_1: 3d5e578d
gpu_0/res4_0_branch2a_bn_1: 3d9b7333
gpu_0/res4_0_branch2a_bn_2: 3d84a34e
gpu_0/res4_0_branch2b_1: 3d2a7bcc
gpu_0/res4_0_branch2b_bn_1: 3d840774
gpu_0/res4_0_branch2b_bn_2: 3d6a00a5
gpu_0/res4_0_branch2c_1: 3cda7711
gpu_0/res4_0_branch2c_bn_1: 3d62f446
gpu_0/res4_0_branch1_1: 3d1a7d0a
gpu_0/res4_0_branch1_bn_1: 3d532ff8
gpu_0/res4_0_branch2c_bn_2: 3d9f7cbb
gpu_0/res4_0_branch2c_bn_3: 3da8d153
gpu_0/res4_1_branch2a_1: 3d9b94b4
gpu_0/res4_1_branch2a_bn_1: 3d95d028
gpu_0/res4_1_branch2a_bn_2: 3d976328
gpu_0/res4_1_branch2b_1: 3d963250
gpu_0/res4_1_branch2b_bn_1: 3d8b4df0
gpu_0/res4_1_branch2b_bn_2: 3d45018a
gpu_0/res4_1_branch2c_1: 3c7630e8
gpu_0/res4_1_branch2c_bn_1: 3d48632e
gpu_0/res4_1_branch2c_bn_2: 3d874eee
gpu_0/res4_1_branch2c_bn_3: 3d874eee
gpu_0/res4_2_branch2a_1: 3d267ec3
gpu_0/res4_2_branch2a_bn_1: 3d52d0e6
gpu_0/res4_2_branch2a_bn_2: 3d5ea189
gpu_0/res4_2_branch2b_1: 3d5aaed3
gpu_0/res4_2_branch2b_bn_1: 3dd05a9b
gpu_0/res4_2_branch2b_bn_2: 3d459be6
gpu_0/res4_2_branch2c_1: 3c4ed110
gpu_0/res4_2_branch2c_bn_1: 3d69cc6a
gpu_0/res4_2_branch2c_bn_2: 3d94195f
gpu_0/res4_2_branch2c_bn_3: 3d94195f
gpu_0/res4_3_branch2a_1: 3d139b53
gpu_0/res4_3_branch2a_bn_1: 3d569e03
gpu_0/res4_3_branch2a_bn_2: 3d42e1bb
gpu_0/res4_3_branch2b_1: 3d2b6c41
gpu_0/res4_3_branch2b_bn_1: 3d8b3add
gpu_0/res4_3_branch2b_bn_2: 3d2ff2e7
gpu_0/res4_3_branch2c_1: 3c4c23e0
gpu_0/res4_3_branch2c_bn_1: 3d4eca1e
gpu_0/res4_3_branch2c_bn_2: 3d6fff1c
gpu_0/res4_3_branch2c_bn_3: 3d772072
gpu_0/res4_4_branch2a_1: 3d0bca96
gpu_0/res4_4_branch2a_bn_1: 3d6a06d1
gpu_0/res4_4_branch2a_bn_2: 3d556c23
gpu_0/res4_4_branch2b_1: 3ceb96e0
gpu_0/res4_4_branch2b_bn_1: 3d6ccd3a
gpu_0/res4_4_branch2b_bn_2: 3d539232
gpu_0/res4_4_branch2c_1: 3ca3655e
gpu_0/res4_4_branch2c_bn_1: 3d38494f
gpu_0/res4_4_branch2c_bn_2: 3d8f72e1
gpu_0/res4_4_branch2c_bn_3: 3d90350d
gpu_0/res4_5_branch2a_1: 3d25c859
gpu_0/res4_5_branch2a_bn_1: 3d64f6be
gpu_0/res4_5_branch2a_bn_2: 3d843048
gpu_0/res4_5_branch2b_1: 3d1dde5f
gpu_0/res4_5_branch2b_bn_1: 3d966396
gpu_0/res4_5_branch2b_bn_2: 3d966396
gpu_0/res4_5_branch2c_1: 3cb6fa2e
gpu_0/res4_5_branch2c_bn_1: 3d4ea721
gpu_0/res4_5_branch2c_bn_2: 3d7e6f01
gpu_0/res4_5_branch2c_bn_3: 3d7d5e49
gpu_0/res5_0_branch2a_1: 3cf2f845
gpu_0/res5_0_branch2a_bn_1: 3d6ec0b4
gpu_0/res5_0_branch2a_bn_2: 3d5402bf
gpu_0/res5_0_branch2b_1: 3cec70b6
gpu_0/res5_0_branch2b_bn_1: 3d9ce9ee
gpu_0/res5_0_branch2b_bn_2: 3d818365
gpu_0/res5_0_branch2c_1: 3cba4c00
gpu_0/res5_0_branch2c_bn_1: 3e210163
gpu_0/res5_0_branch1_1: 3ca3df51
gpu_0/res5_0_branch1_bn_1: 3e0a7482
gpu_0/res5_0_branch2c_bn_2: 3e9ce2e5
gpu_0/res5_0_branch2c_bn_3: 3e9ce2e5
gpu_0/res5_1_branch2a_1: 3e04f834
gpu_0/res5_1_branch2a_bn_1: 3d82c22f
gpu_0/res5_1_branch2a_bn_2: 3d74fb66
gpu_0/res5_1_branch2b_1: 3d1eec71
gpu_0/res5_1_branch2b_bn_1: 3d671656
gpu_0/res5_1_branch2b_bn_2: 3d1f9903
gpu_0/res5_1_branch2c_1: 3c6d0350
gpu_0/res5_1_branch2c_bn_1: 3dec5e2d
gpu_0/res5_1_branch2c_bn_2: 3e719456
gpu_0/res5_1_branch2c_bn_3: 3e982528
gpu_0/res5_2_branch2a_1: 3e50f72d
gpu_0/res5_2_branch2a_bn_1: 3d9c4adf
gpu_0/res5_2_branch2a_bn_2: 3d69b273
gpu_0/res5_2_branch2b_1: 3ce53f9b
gpu_0/res5_2_branch2b_bn_1: 3d8762de
gpu_0/res5_2_branch2b_bn_2: 3d402926
gpu_0/res5_2_branch2c_1: 3c10559d
gpu_0/res5_2_branch2c_bn_1: 3e089703
gpu_0/res5_2_branch2c_bn_2: 3e8600d4
gpu_0/res5_2_branch2c_bn_3: 3eb123eb
gpu_0/pool5_1: 3eb123eb
OC2_DUMMY_0: 3d69cd05
(Unnamed Layer* 174) [Shuffle]_output: 3d69cd05
(Unnamed Layer* 175) [Fully Connected]_output: 3e81eee2
gpu_0/pred_1: 3e81eee2
gpu_0/softmax_1: 3c08451e
