TRT-7202-EntropyCalibration2
gpu_0/data_0: 3caa54fc
gpu_0/conv3_0_1: 3e0e1d23
gpu_0/conv3_0_bn_1: 3db236ea
gpu_0/conv3_0_bn_2: 3dcecea4
gpu_0/pool_0_1: 3dcecea4
gpu_0/gconv1_0_1: 3da1be6c
gpu_0/gconv1_0_bn_1: 3dc8f254
gpu_0/gconv1_0_bn_2: 3dbaf109
OC2_DUMMY_0: 3dbaf109
OC2_DUMMY_2: 3dbaf109
gpu_0/shuffle_0_1: 3dbaf109
gpu_0/gconv3_0_1: 3d5703f4
gpu_0/gconv3_0_bn_1: 3e1649bf
gpu_0/gconv1_1_1: 3e0a2a2d
gpu_0/gconv1_1_bn_1: 3df8843f
gpu_0/pool_1_1: 3df8843f
gpu_0/block0_1: 3df8843f
gpu_0/block0_2: 3db89b0c
gpu_0/gconv1_2_1: 3e0519e5
gpu_0/gconv1_2_bn_1: 3df46cb1
gpu_0/gconv1_2_bn_2: 3d9892eb
OC2_DUMMY_4: 3d9892eb
OC2_DUMMY_6: 3d9892eb
gpu_0/shuffle_1_1: 3d9892eb
gpu_0/gconv3_1_1: 3d0040c1
gpu_0/gconv3_1_bn_1: 3dd786f6
gpu_0/gconv1_3_1: 3d9650e1
gpu_0/gconv1_3_bn_1: 3e364480
gpu_0/block1_1: 3e435412
gpu_0/block1_2: 3e3abcfe
gpu_0/gconv1_4_1: 3db7ca80
gpu_0/gconv1_4_bn_1: 3dae4465
gpu_0/gconv1_4_bn_2: 3d8295df
OC2_DUMMY_8: 3d8295df
OC2_DUMMY_10: 3d8295df
gpu_0/shuffle_2_1: 3d8295df
gpu_0/gconv3_2_1: 3ca594ed
gpu_0/gconv3_2_bn_1: 3dc4fdc8
gpu_0/gconv1_5_1: 3d50b22f
gpu_0/gconv1_5_bn_1: 3e14cb51
gpu_0/block2_1: 3e55a1bb
gpu_0/block2_2: 3e663525
gpu_0/gconv1_6_1: 3e1711f9
gpu_0/gconv1_6_bn_1: 3d8fffab
gpu_0/gconv1_6_bn_2: 3d9d2732
OC2_DUMMY_12: 3d9d2732
OC2_DUMMY_14: 3d9d2732
gpu_0/shuffle_3_1: 3d9d2732
gpu_0/gconv3_3_1: 3cb75529
gpu_0/gconv3_3_bn_1: 3dc6382f
gpu_0/gconv1_7_1: 3d85f815
gpu_0/gconv1_7_bn_1: 3e5262fc
gpu_0/block3_1: 3e8aaf65
gpu_0/block3_2: 3e8aaf65
gpu_0/gconv1_8_1: 3e099fa6
gpu_0/gconv1_8_bn_1: 3d5e859b
gpu_0/gconv1_8_bn_2: 3d6fb5cb
OC2_DUMMY_16: 3d6fb5cb
OC2_DUMMY_18: 3d6fb5cb
gpu_0/shuffle_4_1: 3d6fb5cb
gpu_0/gconv3_4_1: 3cb6c9a1
gpu_0/gconv3_4_bn_1: 3d9f6306
gpu_0/gconv1_9_1: 3d7480cb
gpu_0/gconv1_9_bn_1: 3e10db97
gpu_0/pool_2_1: 3e10db97
gpu_0/block4_1: 3e10db97
gpu_0/block4_2: 3e1cd683
gpu_0/gconv1_10_1: 3dca5019
gpu_0/gconv1_10_bn_1: 3d6fce1e
gpu_0/gconv1_10_bn_2: 3d795b03
OC2_DUMMY_20: 3d795b03
OC2_DUMMY_22: 3d795b03
gpu_0/shuffle_5_1: 3d795b03
gpu_0/gconv3_5_1: 3c9b3ab1
gpu_0/gconv3_5_bn_1: 3d99d8b7
gpu_0/gconv1_11_1: 3d7a7c8e
gpu_0/gconv1_11_bn_1: 3df6c913
gpu_0/block5_1: 3e3b71ac
gpu_0/block5_2: 3e31bf47
gpu_0/gconv1_12_1: 3dd18085
gpu_0/gconv1_12_bn_1: 3d531551
gpu_0/gconv1_12_bn_2: 3d531551
OC2_DUMMY_24: 3d531551
OC2_DUMMY_26: 3d531551
gpu_0/shuffle_6_1: 3d531551
gpu_0/gconv3_6_1: 3c554a23
gpu_0/gconv3_6_bn_1: 3d98f377
gpu_0/gconv1_13_1: 3d31080b
gpu_0/gconv1_13_bn_1: 3e0a0b75
gpu_0/block6_1: 3e4df81a
gpu_0/block6_2: 3e50079f
gpu_0/gconv1_14_1: 3e1369f7
gpu_0/gconv1_14_bn_1: 3d59af04
gpu_0/gconv1_14_bn_2: 3d4ffea6
OC2_DUMMY_28: 3d4ffea6
OC2_DUMMY_30: 3d4ffea6
gpu_0/shuffle_7_1: 3d4ffea6
gpu_0/gconv3_7_1: 3c2f619b
gpu_0/gconv3_7_bn_1: 3daad6b5
gpu_0/gconv1_15_1: 3d098385
gpu_0/gconv1_15_bn_1: 3deec4f8
gpu_0/block7_1: 3e76e44e
gpu_0/block7_2: 3e6b8b8d
gpu_0/gconv1_16_1: 3de0fda1
gpu_0/gconv1_16_bn_1: 3d53bac4
gpu_0/gconv1_16_bn_2: 3d53bc9b
OC2_DUMMY_32: 3d53bc9b
OC2_DUMMY_34: 3d53bc9b
gpu_0/shuffle_8_1: 3d53bc9b
gpu_0/gconv3_8_1: 3c3e2789
gpu_0/gconv3_8_bn_1: 3d95e346
gpu_0/gconv1_17_1: 3d13170b
gpu_0/gconv1_17_bn_1: 3dfae8bd
gpu_0/block8_1: 3e6cccc8
gpu_0/block8_2: 3e8ba0cc
gpu_0/gconv1_18_1: 3e0546eb
gpu_0/gconv1_18_bn_1: 3d527f3f
gpu_0/gconv1_18_bn_2: 3d2efa2c
OC2_DUMMY_36: 3d2efa2c
OC2_DUMMY_38: 3d2efa2c
gpu_0/shuffle_9_1: 3d2efa2c
gpu_0/gconv3_9_1: 3c25a48a
gpu_0/gconv3_9_bn_1: 3dc16688
gpu_0/gconv1_19_1: 3d17dc38
gpu_0/gconv1_19_bn_1: 3df9c5e5
gpu_0/block9_1: 3e867dea
gpu_0/block9_2: 3e867dea
gpu_0/gconv1_20_1: 3df6ae6f
gpu_0/gconv1_20_bn_1: 3d53aa30
gpu_0/gconv1_20_bn_2: 3d2eec50
OC2_DUMMY_40: 3d2eec50
OC2_DUMMY_42: 3d2eec50
gpu_0/shuffle_10_1: 3d2eec50
gpu_0/gconv3_10_1: 3c0d99f4
gpu_0/gconv3_10_bn_1: 3da1410a
gpu_0/gconv1_21_1: 3d186f04
gpu_0/gconv1_21_bn_1: 3e0a46ba
gpu_0/block10_1: 3e99af06
gpu_0/block10_2: 3e9b70a8
gpu_0/gconv1_22_1: 3e2733ca
gpu_0/gconv1_22_bn_1: 3d49033a
gpu_0/gconv1_22_bn_2: 3d48fbd5
OC2_DUMMY_44: 3d48fbd5
OC2_DUMMY_46: 3d48fbd5
gpu_0/shuffle_11_1: 3d48fbd5
gpu_0/gconv3_11_1: 3c119288
gpu_0/gconv3_11_bn_1: 3d843428
gpu_0/gconv1_23_1: 3d39e6f6
gpu_0/gconv1_23_bn_1: 3e1fe2d2
gpu_0/block11_1: 3eb2da60
gpu_0/block11_2: 3eb2da60
gpu_0/gconv1_24_1: 3e22af1f
gpu_0/gconv1_24_bn_1: 3d47be6d
gpu_0/gconv1_24_bn_2: 3d5a855f
OC2_DUMMY_48: 3d5a855f
OC2_DUMMY_50: 3d5a855f
gpu_0/shuffle_12_1: 3d5a855f
gpu_0/gconv3_12_1: 3c4e3dab
gpu_0/gconv3_12_bn_1: 3dda88cc
gpu_0/gconv1_25_1: 3d1f902d
gpu_0/gconv1_25_bn_1: 3e565584
gpu_0/pool_3_1: 3e565584
gpu_0/block12_1: 3e565584
gpu_0/block12_2: 3e8e1d18
gpu_0/gconv1_26_1: 3de1e804
gpu_0/gconv1_26_bn_1: 3d681f0e
gpu_0/gconv1_26_bn_2: 3d684830
OC2_DUMMY_52: 3d684830
OC2_DUMMY_54: 3d684830
gpu_0/shuffle_13_1: 3d684830
gpu_0/gconv3_13_1: 3c2f3214
gpu_0/gconv3_13_bn_1: 3d9ee629
gpu_0/gconv1_27_1: 3d1b998d
gpu_0/gconv1_27_bn_1: 3e0bff07
gpu_0/block13_1: 3e76273e
gpu_0/block13_2: 3e848899
gpu_0/gconv1_28_1: 3de01bbc
gpu_0/gconv1_28_bn_1: 3d732289
gpu_0/gconv1_28_bn_2: 3d6770f9
OC2_DUMMY_56: 3d6770f9
OC2_DUMMY_58: 3d6770f9
gpu_0/shuffle_14_1: 3d6770f9
gpu_0/gconv3_14_1: 3c2d113e
gpu_0/gconv3_14_bn_1: 3d950ddb
gpu_0/gconv1_29_1: 3d167276
gpu_0/gconv1_29_bn_1: 3e19189d
gpu_0/block14_1: 3e990f46
gpu_0/block14_2: 3e9f5836
gpu_0/gconv1_30_1: 3e04fa0f
gpu_0/gconv1_30_bn_1: 3d8a3052
gpu_0/gconv1_30_bn_2: 3d5626e3
OC2_DUMMY_60: 3d5626e3
OC2_DUMMY_62: 3d5626e3
gpu_0/shuffle_15_1: 3d5626e3
gpu_0/gconv3_15_1: 3c1b270f
gpu_0/gconv3_15_bn_1: 3d9c77a3
gpu_0/gconv1_31_1: 3d4167ba
gpu_0/gconv1_31_bn_1: 3e894963
gpu_0/block15_1: 3ec8ca6f
gpu_0/block15_2: 3f0744a4
gpu_0/final_avg_1: 3f0744a4
OC2_DUMMY_64: 3ddcb597
(Unnamed Layer* 201) [Shuffle]_output: 3ddcb597
(Unnamed Layer* 202) [Fully Connected]_output: 3e2899ca
gpu_0/pred_1: 3e2899ca
gpu_0/softmax_1: 3aa39690
