TRT-7202-EntropyCalibration2
data_0: 40bfdd39
conv1_1: 41549845
conv1_2: 413c33be
pool1_1: 413c33be
fire2/squeeze1x1_1: 42614e44
fire2/squeeze1x1_2: 4225e05f
fire2/expand1x1_1: 41e84cf7
fire2/expand1x1_2: 41e4c43c
fire2/expand3x3_1: 422ac5c3
fire2/expand3x3_2: 41e4c43c
fire2/concat_1: 41e4c43c
fire3/squeeze1x1_1: 421bb3f8
fire3/squeeze1x1_2: 421bb3f8
fire3/expand1x1_1: 41b0e8f2
fire3/expand1x1_2: 41ecfbc7
fire3/expand3x3_1: 42506cc7
fire3/expand3x3_2: 41ecfbc7
fire3/concat_1: 41ecfbc7
pool3_1: 41ecfbc7
fire4/squeeze1x1_1: 426bd44b
fire4/squeeze1x1_2: 425bd916
fire4/expand1x1_1: 41cf1ba8
fire4/expand1x1_2: 423619f6
fire4/expand3x3_1: 4284bf38
fire4/expand3x3_2: 423619f6
fire4/concat_1: 423619f6
fire5/squeeze1x1_1: 4249bd1e
fire5/squeeze1x1_2: 426b1581
fire5/expand1x1_1: 4197e074
fire5/expand1x1_2: 4205f3c3
fire5/expand3x3_1: 423bebf2
fire5/expand3x3_2: 4205f3c3
fire5/concat_1: 4205f3c3
pool5_1: 4205f3c3
fire6/squeeze1x1_1: 4248fc9c
fire6/squeeze1x1_2: 4248601a
fire6/expand1x1_1: 4201d01f
fire6/expand1x1_2: 4216e4bf
fire6/expand3x3_1: 428d237e
fire6/expand3x3_2: 4216e4bf
fire6/concat_1: 4216e4bf
fire7/squeeze1x1_1: 423e2561
fire7/squeeze1x1_2: 4230e5b5
fire7/expand1x1_1: 41915de2
fire7/expand1x1_2: 41c57b3b
fire7/expand3x3_1: 423e0985
fire7/expand3x3_2: 41c57b3b
fire7/concat_1: 41c57b3b
fire8/squeeze1x1_1: 41d122bb
fire8/squeeze1x1_2: 41d122bb
fire8/expand1x1_1: 41034037
fire8/expand1x1_2: 416f4427
fire8/expand3x3_1: 41fc0aab
fire8/expand3x3_2: 416f4427
fire8/concat_1: 416f4427
fire9/squeeze1x1_1: 41e8f28f
fire9/squeeze1x1_2: 41e8f28f
fire9/expand1x1_1: 41aa7b5a
fire9/expand1x1_2: 4166cd62
fire9/expand3x3_1: 420b60f7
fire9/expand3x3_2: 4166cd62
fire9/concat_1: 4166cd62
fire9/concat_2: 4166cd62
conv10_1: 40c2c071
conv10_2: 40dbaac4
pool10_1: 3fb37d50
(Unnamed Layer* 66) [Shuffle]_output: 3fb37d50
(Unnamed Layer* 67) [Softmax]_output: 3c20305f
softmaxout_1: 3c20305f
